{
  "version": "1.0",
  "truncation": null,
  "padding": null,
  "added_tokens": [
    {
      "id": 0,
      "content": "<|endoftext|>",
      "single_word": false,
      "lstrip": false,
      "rstrip": false,
      "normalized": false,
      "special": true
    },
    {
      "id": 4096,
      "content": "<|im_start|>",
      "single_word": false,
      "lstrip": false,
      "rstrip": false,
      "normalized": false,
      "special": true
    },
    {
      "id": 4097,
      "content": "<|im_end|>",
      "single_word": false,
      "lstrip": false,
      "rstrip": false,
      "normalized": false,
      "special": true
    }
  ],
  "normalizer": null,
  "pre_tokenizer": {
    "type": "Sequence",
    "pretokenizers": [
      {
        "type": "Digits",
        "individual_digits": true
      },
      {
        "type": "ByteLevel",
        "add_prefix_space": false,
        "trim_offsets": true,
        "use_regex": true
      }
    ]
  },
  "post_processor": null,
  "decoder": {
    "type": "ByteLevel",
    "add_prefix_space": true,
    "trim_offsets": true,
    "use_regex": true
  },
  "model": {
    "type": "BPE",
    "dropout": null,
    "unk_token": null,
    "continuing_subword_prefix": null,
    "end_of_word_suffix": null,
    "fuse_unk": false,
    "byte_fallback": true,
    "ignore_merges": false,
    "vocab": {
      "<|endoftext|>": 0,
      "!": 1,
      "\"": 2,
      "#": 3,
      "$": 4,
      "%": 5,
      "&": 6,
      "'": 7,
      "(": 8,
      ")": 9,
      "*": 10,
      "+": 11,
      ",": 12,
      "-": 13,
      ".": 14,
      "/": 15,
      "0": 16,
      "1": 17,
      "2": 18,
      "3": 19,
      "4": 20,
      "5": 21,
      "6": 22,
      "7": 23,
      "8": 24,
      "9": 25,
      ":": 26,
      ";": 27,
      "<": 28,
      "=": 29,
      ">": 30,
      "?": 31,
      "@": 32,
      "A": 33,
      "B": 34,
      "C": 35,
      "D": 36,
      "E": 37,
      "F": 38,
      "G": 39,
      "H": 40,
      "I": 41,
      "J": 42,
      "K": 43,
      "L": 44,
      "M": 45,
      "N": 46,
      "O": 47,
      "P": 48,
      "Q": 49,
      "R": 50,
      "S": 51,
      "T": 52,
      "U": 53,
      "V": 54,
      "W": 55,
      "X": 56,
      "Y": 57,
      "Z": 58,
      "[": 59,
      "\\": 60,
      "]": 61,
      "^": 62,
      "_": 63,
      "`": 64,
      "a": 65,
      "b": 66,
      "c": 67,
      "d": 68,
      "e": 69,
      "f": 70,
      "g": 71,
      "h": 72,
      "i": 73,
      "j": 74,
      "k": 75,
      "l": 76,
      "m": 77,
      "n": 78,
      "o": 79,
      "p": 80,
      "q": 81,
      "r": 82,
      "s": 83,
      "t": 84,
      "u": 85,
      "v": 86,
      "w": 87,
      "x": 88,
      "y": 89,
      "z": 90,
      "{": 91,
      "|": 92,
      "}": 93,
      "~": 94,
      "¡": 95,
      "¢": 96,
      "£": 97,
      "¤": 98,
      "¥": 99,
      "¦": 100,
      "§": 101,
      "¨": 102,
      "©": 103,
      "ª": 104,
      "«": 105,
      "¬": 106,
      "®": 107,
      "¯": 108,
      "°": 109,
      "±": 110,
      "²": 111,
      "³": 112,
      "´": 113,
      "µ": 114,
      "¶": 115,
      "·": 116,
      "¸": 117,
      "¹": 118,
      "º": 119,
      "»": 120,
      "¼": 121,
      "½": 122,
      "¾": 123,
      "¿": 124,
      "À": 125,
      "Á": 126,
      "Â": 127,
      "Ã": 128,
      "Ä": 129,
      "Å": 130,
      "Æ": 131,
      "Ç": 132,
      "È": 133,
      "É": 134,
      "Ê": 135,
      "Ë": 136,
      "Ì": 137,
      "Í": 138,
      "Î": 139,
      "Ï": 140,
      "Ð": 141,
      "Ñ": 142,
      "Ò": 143,
      "Ó": 144,
      "Ô": 145,
      "Õ": 146,
      "Ö": 147,
      "×": 148,
      "Ø": 149,
      "Ù": 150,
      "Ú": 151,
      "Û": 152,
      "Ü": 153,
      "Ý": 154,
      "Þ": 155,
      "ß": 156,
      "à": 157,
      "á": 158,
      "â": 159,
      "ã": 160,
      "ä": 161,
      "å": 162,
      "æ": 163,
      "ç": 164,
      "è": 165,
      "é": 166,
      "ê": 167,
      "ë": 168,
      "ì": 169,
      "í": 170,
      "î": 171,
      "ï": 172,
      "ð": 173,
      "ñ": 174,
      "ò": 175,
      "ó": 176,
      "ô": 177,
      "õ": 178,
      "ö": 179,
      "÷": 180,
      "ø": 181,
      "ù": 182,
      "ú": 183,
      "û": 184,
      "ü": 185,
      "ý": 186,
      "þ": 187,
      "ÿ": 188,
      "Ā": 189,
      "ā": 190,
      "Ă": 191,
      "ă": 192,
      "Ą": 193,
      "ą": 194,
      "Ć": 195,
      "ć": 196,
      "Ĉ": 197,
      "ĉ": 198,
      "Ċ": 199,
      "ċ": 200,
      "Č": 201,
      "č": 202,
      "Ď": 203,
      "ď": 204,
      "Đ": 205,
      "đ": 206,
      "Ē": 207,
      "ē": 208,
      "Ĕ": 209,
      "ĕ": 210,
      "Ė": 211,
      "ė": 212,
      "Ę": 213,
      "ę": 214,
      "Ě": 215,
      "ě": 216,
      "Ĝ": 217,
      "ĝ": 218,
      "Ğ": 219,
      "ğ": 220,
      "Ġ": 221,
      "ġ": 222,
      "Ģ": 223,
      "ģ": 224,
      "Ĥ": 225,
      "ĥ": 226,
      "Ħ": 227,
      "ħ": 228,
      "Ĩ": 229,
      "ĩ": 230,
      "Ī": 231,
      "ī": 232,
      "Ĭ": 233,
      "ĭ": 234,
      "Į": 235,
      "į": 236,
      "İ": 237,
      "ı": 238,
      "Ĳ": 239,
      "ĳ": 240,
      "Ĵ": 241,
      "ĵ": 242,
      "Ķ": 243,
      "ķ": 244,
      "ĸ": 245,
      "Ĺ": 246,
      "ĺ": 247,
      "Ļ": 248,
      "ļ": 249,
      "Ľ": 250,
      "ľ": 251,
      "Ŀ": 252,
      "ŀ": 253,
      "Ł": 254,
      "ł": 255,
      "Ń": 256,
      "Ġt": 257,
      "Ġa": 258,
      "he": 259,
      "in": 260,
      "re": 261,
      "on": 262,
      "Ġthe": 263,
      "er": 264,
      "Ġs": 265,
      "Ġw": 266,
      "at": 267,
      "Ġo": 268,
      "nd": 269,
      "Ġc": 270,
      "it": 271,
      "or": 272,
      "es": 273,
      "is": 274,
      "en": 275,
      "ou": 276,
      "Ġf": 277,
      "Ġb": 278,
      "ing": 279,
      "Ġp": 280,
      "ed": 281,
      "an": 282,
      "al": 283,
      "Ġto": 284,
      "Ġm": 285,
      "ar": 286,
      "Ġand": 287,
      "Ġof": 288,
      "Ġin": 289,
      "Ġd": 290,
      "ic": 291,
      "Ġh": 292,
      "le": 293,
      "as": 294,
      "om": 295,
      "ion": 296,
      "Ġth": 297,
      "ll": 298,
      "âĢ": 299,
      "Ġl": 300,
      "ent": 301,
      "ve": 302,
      "Ġe": 303,
      "st": 304,
      "Ġre": 305,
      "Ġn": 306,
      "ro": 307,
      "Ġy": 308,
      "Ġg": 309,
      "ly": 310,
      "ĠI": 311,
      "ct": 312,
      "Ġbe": 313,
      "ĠT": 314,
      "ut": 315,
      "Ġis": 316,
      "et": 317,
      "ot": 318,
      "id": 319,
      "Ġyou": 320,
      "ĠS": 321,
      "Ġfor": 322,
      "ay": 323,
      "Ġon": 324,
      "ow": 325,
      "ur": 326,
      "ĠA": 327,
      "se": 328,
      "im": 329,
      "ĠC": 330,
      "ad": 331,
      "ce": 332,
      "ig": 333,
      "am": 334,
      "Ġu": 335,
      "Ġthat": 336,
      "ver": 337,
      "ch": 338,
      "il": 339,
      "ation": 340,
      "ith": 341,
      "Ġst": 342,
      "ol": 343,
      "ir": 344,
      "Ġwith": 345,
      "âĢĻ": 346,
      "Ġhe": 347,
      "Ġit": 348,
      "ĠM": 349,
      "ra": 350,
      "Ġwe": 351,
      "Ġan": 352,
      "Ġas": 353,
      "ĠB": 354,
      "Ġwh": 355,
      "ers": 356,
      "ĠP": 357,
      "ill": 358,
      "if": 359,
      "Ġpro": 360,
      "ke": 361,
      "Ġare": 362,
      "Ġha": 363,
      "ter": 364,
      "ge": 365,
      "Ġcon": 366,
      "ld": 367,
      "ĠW": 368,
      "oo": 369,
      "Ġor": 370,
      "ate": 371,
      "her": 372,
      "ul": 373,
      "ck": 374,
      "Ġcom": 375,
      "ess": 376,
      "pp": 377,
      "Ġat": 378,
      "Ġse": 379,
      "ĠH": 380,
      "ore": 381,
      "ĠD": 382,
      "ment": 383,
      "est": 384,
      "ĠThe": 385,
      "Ġde": 386,
      "ri": 387,
      "igh": 388,
      "ĠF": 389,
      "us": 390,
      "ĠR": 391,
      "Ġwas": 392,
      "th": 393,
      "ab": 394,
      "rom": 395,
      "ist": 396,
      "Ġne": 397,
      "Ġ(": 398,
      "op": 399,
      "un": 400,
      "Ġex": 401,
      "ure": 402,
      "ity": 403,
      "ive": 404,
      "qu": 405,
      "ant": 406,
      "Ġr": 407,
      "Ġv": 408,
      "Ġhave": 409,
      "pe": 410,
      "em": 411,
      "ĠL": 412,
      "ĠâĢ": 413,
      "ĠN": 414,
      "um": 415,
      "art": 416,
      "ust": 417,
      "ort": 418,
      "ain": 419,
      "Ġthis": 420,
      "Ġnot": 421,
      "Ġsh": 422,
      "Ġfrom": 423,
      "Ġyour": 424,
      "nt": 425,
      "ĠG": 426,
      "ĠE": 427,
      "os": 428,
      "ies": 429,
      "Ġby": 430,
      "ight": 431,
      "el": 432,
      "Ġal": 433,
      "and": 434,
      "Ġch": 435,
      "Ġcan": 436,
      "Ġsu": 437,
      "all": 438,
      "Ġle": 439,
      "ome": 440,
      "res": 441,
      "out": 442,
      "ard": 443,
      "ie": 444,
      "Ġwill": 445,
      "ould": 446,
      "ĠO": 447,
      "Ġab": 448,
      "Ġdo": 449,
      "our": 450,
      "ally": 451,
      "ud": 452,
      "ost": 453,
      "te": 454,
      "gh": 455,
      "Ġwor": 456,
      "iv": 457,
      "Ġpl": 458,
      "'s": 459,
      "ast": 460,
      "rou": 461,
      "Ġall": 462,
      "od": 463,
      "ci": 464,
      "red": 465,
      "Ġj": 466,
      "ear": 467,
      "The": 468,
      "ide": 469,
      "ak": 470,
      "ĠJ": 471,
      "Ġk": 472,
      "ag": 473,
      "ine": 474,
      "fe": 475,
      "Ġso": 476,
      "pt": 477,
      "Ġhas": 478,
      "Ġme": 479,
      "ice": 480,
      "âĢĿ": 481,
      "per": 482,
      "Ġbut": 483,
      "Ġwhe": 484,
      "ack": 485,
      "Ġus": 486,
      "Ġcomp": 487,
      "age": 488,
      "ction": 489,
      "ther": 490,
      "Ġad": 491,
      "Ġout": 492,
      "ac": 493,
      "Ġup": 494,
      "ich": 495,
      "ook": 496,
      "Ġthey": 497,
      "one": 498,
      "ake": 499,
      "are": 500,
      "og": 501,
      "Ġmore": 502,
      "ĠU": 503,
      "ind": 504,
      "Ġen": 505,
      "so": 506,
      "ry": 507,
      "ated": 508,
      "ime": 509,
      "Ġtheir": 510,
      "very": 511,
      "Ġmy": 512,
      "pl": 513,
      "ong": 514,
      "cc": 515,
      "Ġte": 516,
      "Ġhis": 517,
      "ood": 518,
      "able": 519,
      "ous": 520,
      "ans": 521,
      "ite": 522,
      "Ġcl": 523,
      "Ġsa": 524,
      "ame": 525,
      "Ġone": 526,
      "iz": 527,
      "ike": 528,
      "Ġabout": 529,
      "ĠTh": 530,
      "ĠâĢľ": 531,
      "ip": 532,
      "Ġwho": 533,
      "orm": 534,
      "Ġcont": 535,
      "ib": 536,
      "Ġim": 537,
      "Ġour": 538,
      "du": 539,
      "Ġman": 540,
      "ĠIn": 541,
      "Ġinc": 542,
      "Ġgo": 543,
      "ru": 544,
      "ions": 545,
      "Ġfe": 546,
      "ance": 547,
      "ne": 548,
      "to": 549,
      "Ġwhich": 550,
      "ase": 551,
      "Ġres": 552,
      "ays": 553,
      "act": 554,
      "ap": 555,
      "Ġper": 556,
      "ire": 557,
      "Ġlo": 558,
      "ĠY": 559,
      "Ġwork": 560,
      "ĠK": 561,
      "ick": 562,
      "ber": 563,
      "ff": 564,
      "ail": 565,
      "ia": 566,
      "Ġapp": 567,
      "ree": 568,
      "Ġother": 569,
      "Ġoff": 570,
      "ace": 571,
      "ven": 572,
      "ign": 573,
      "ations": 574,
      "ult": 575,
      "..": 576,
      "ue": 577,
      "reat": 578,
      "Ġtime": 579,
      "ass": 580,
      "ical": 581,
      "ach": 582,
      "au": 583,
      "Ġyear": 584,
      "Ġsome": 585,
      "ep": 586,
      "ary": 587,
      "Ġdis": 588,
      "Ġlike": 589,
      "ub": 590,
      "ĠSt": 591,
      "Ġany": 592,
      "ile": 593,
      "Ġqu": 594,
      "now": 595,
      "Ġalso": 596,
      "vel": 597,
      "ark": 598,
      "Ġget": 599,
      "Ġnew": 600,
      "ount": 601,
      "Ġher": 602,
      "Ġun": 603,
      "Ġhad": 604,
      "ence": 605,
      "ord": 606,
      "Ġthem": 607,
      "Ġbeen": 608,
      "Ġsp": 609,
      "ĠIt": 610,
      "form": 611,
      "Ġpart": 612,
      "erv": 613,
      "ings": 614,
      "Ġwere": 615,
      "Ġ\"": 616,
      "ĠV": 617,
      "Ġthere": 618,
      "ress": 619,
      "Ġag": 620,
      "Ġwould": 621,
      "Ġpe": 622,
      "Ġwhen": 623,
      "Ġif": 624,
      "ough": 625,
      "Ġover": 626,
      "ond": 627,
      "ition": 628,
      "ĠCh": 629,
      "av": 630,
      "ors": 631,
      "ink": 632,
      "Ġar": 633,
      "ose": 634,
      "ents": 635,
      "Ġthan": 636,
      "Ġwhat": 637,
      "ens": 638,
      "ial": 639,
      "Ġtr": 640,
      "Ġjust": 641,
      "Ġrec": 642,
      "ound": 643,
      "Ġspe": 644,
      "Ġknow": 645,
      "Ġbec": 646,
      "Ġro": 647,
      "Ġsaid": 648,
      "irst": 649,
      "int": 650,
      "ild": 651,
      "Ġinto": 652,
      "Ġco": 653,
      "Ġpre": 654,
      "ish": 655,
      "ĠWe": 656,
      "Ġ-": 657,
      "mer": 658,
      "ople": 659,
      "wn": 660,
      "ob": 661,
      "Ġimp": 662,
      "nder": 663,
      "own": 664,
      "Ġneed": 665,
      "ren": 666,
      "Ġam": 667,
      "Ġacc": 668,
      "fter": 669,
      "ory": 670,
      "rough": 671,
      "Ġsc": 672,
      "lic": 673,
      "Ġhow": 674,
      "Ġtw": 675,
      "ade": 676,
      "ĠHe": 677,
      "Ġits": 678,
      "ater": 679,
      "Ġshe": 680,
      "Ġmay": 681,
      "Ġbl": 682,
      "old": 683,
      "Ġno": 684,
      "itt": 685,
      "vers": 686,
      "Ġpeople": 687,
      "oy": 688,
      "ang": 689,
      "Ġdes": 690,
      "lud": 691,
      "ning": 692,
      "'t": 693,
      "Ġfirst": 694,
      "ons": 695,
      "we": 696,
      "ces": 697,
      "Ġcomm": 698,
      "ĠâĢĵ": 699,
      "amp": 700,
      "hed": 701,
      "ual": 702,
      "ause": 703,
      "oc": 704,
      "cial": 705,
      "ft": 706,
      "les": 707,
      "ates": 708,
      "Ġonly": 709,
      "Ġadd": 710,
      "lp": 711,
      "Ġtra": 712,
      "ov": 713,
      "ian": 714,
      "ric": 715,
      "ull": 716,
      "Ġmake": 717,
      "Ġlook": 718,
      "Ġmost": 719,
      "Ġfl": 720,
      "Ġem": 721,
      "rent": 722,
      "Ġpo": 723,
      "Ġinclud": 724,
      "Ġback": 725,
      "Ġbet": 726,
      "tern": 727,
      "ments": 728,
      "Ġhelp": 729,
      "Ġind": 730,
      "Ġuse": 731,
      "Ġprov": 732,
      "Ġthrough": 733,
      "day": 734,
      "gr": 735,
      "round": 736,
      "ĠThis": 737,
      "end": 738,
      "Ġwant": 739,
      "cts": 740,
      "ĠRe": 741,
      "Ġtwo": 742,
      "ily": 743,
      "Ġprodu": 744,
      "Ġsee": 745,
      "Ġevery": 746,
      "Ġwell": 747,
      "ating": 748,
      "hing": 749,
      "iss": 750,
      "Ġrep": 751,
      "ove": 752,
      "Ġcons": 753,
      "Ġthese": 754,
      "ious": 755,
      "ise": 756,
      "Ġunder": 757,
      "ew": 758,
      "Ġafter": 759,
      "xt": 760,
      "Ġbu": 761,
      "aw": 762,
      "ities": 763,
      "Ġph": 764,
      "ks": 765,
      "Th": 766,
      "je": 767,
      "iew": 768,
      "ced": 769,
      "Ġplay": 770,
      "Ġcould": 771,
      "ph": 772,
      "Ġact": 773,
      "fore": 774,
      "urn": 775,
      "oll": 776,
      "ific": 777,
      "ife": 778,
      ").": 779,
      "sel": 780,
      "pport": 781,
      "Ġserv": 782,
      "Ġdif": 783,
      "Ġhim": 784,
      "ert": 785,
      "Ġinv": 786,
      "row": 787,
      "hen": 788,
      "Ġsy": 789,
      "Ġvery": 790,
      "als": 791,
      "Ġrel": 792,
      "ting": 793,
      "Ġra": 794,
      "Ġeven": 795,
      "Ġpr": 796,
      "uch": 797,
      "Ġnow": 798,
      "Ġyears": 799,
      "ange": 800,
      "Ġmany": 801,
      "Ġgood": 802,
      "erson": 803,
      "Ġreg": 804,
      "ational": 805,
      "ont": 806,
      "Ġthen": 807,
      "Ġway": 808,
      "cess": 809,
      "Ġev": 810,
      "ased": 811,
      "Ġshould": 812,
      "iness": 813,
      "lect": 814,
      "olog": 815,
      ".âĢĿ": 816,
      "Ġcol": 817,
      "Ġke": 818,
      "Ġwhere": 819,
      "aking": 820,
      "Ġrem": 821,
      "oss": 822,
      "com": 823,
      "oth": 824,
      "Ġsm": 825,
      "ĠYou": 826,
      "ffe": 827,
      "ility": 828,
      "Ġdec": 829,
      "Ġright": 830,
      "bs": 831,
      "ures": 832,
      "ful": 833,
      "ward": 834,
      "rit": 835,
      "Ġbecause": 836,
      "Ġdon": 837,
      "Ġdid": 838,
      "ible": 839,
      "Ġsec": 840,
      "Ġstud": 841,
      "get": 842,
      "Ġgu": 843,
      "Ġsuch": 844,
      "velop": 845,
      "ular": 846,
      "Ġstart": 847,
      "Ġdown": 848,
      "ock": 849,
      "erm": 850,
      "any": 851,
      "ool": 852,
      "Ġatt": 853,
      "ĠSe": 854,
      "Ġfin": 855,
      "ble": 856,
      "ident": 857,
      "Ġ$": 858,
      "ys": 859,
      "uring": 860,
      "Ġgreat": 861,
      "ower": 862,
      "ts": 863,
      "ĠUn": 864,
      "ĠAs": 865,
      "Ġbus": 866,
      "Ġown": 867,
      "Ġac": 868,
      "ath": 869,
      "Ġthink": 870,
      "hes": 871,
      "Ġexper": 872,
      "ied": 873,
      "ices": 874,
      "ty": 875,
      "hip": 876,
      "up": 877,
      "Ġmuch": 878,
      "formation": 879,
      "ĠWh": 880,
      "other": 881,
      "ork": 882,
      "||": 883,
      "alth": 884,
      "Ġtoo": 885,
      "ative": 886,
      "stem": 887,
      "Ġinte": 888,
      "Ġlong": 889,
      "its": 890,
      "Ġent": 891,
      "und": 892,
      "pect": 893,
      "ics": 894,
      "Ġhigh": 895,
      "Ġwee": 896,
      "air": 897,
      "Ġbel": 898,
      "Ġagain": 899,
      "ited": 900,
      "arch": 901,
      "âĢľ": 902,
      "Ġinst": 903,
      "gan": 904,
      "In": 905,
      "Ġbeing": 906,
      "Ġday": 907,
      "ell": 908,
      "rest": 909,
      "Ġset": 910,
      "ĠAnd": 911,
      "rib": 912,
      "ason": 913,
      "omet": 914,
      "ner": 915,
      "ĠCom": 916,
      "ict": 917,
      "Ġtake": 918,
      "Ġpres": 919,
      "),": 920,
      "Ġhere": 921,
      "Ġbefore": 922,
      "Ġsim": 923,
      "Ġdoes": 924,
      "Ġfind": 925,
      "ract": 926,
      "Ġdiffe": 927,
      "Ġmon": 928,
      "Ġread": 929,
      "Ġend": 930,
      "alk": 931,
      "Ġthose": 932,
      "ener": 933,
      "io": 934,
      "way": 935,
      "Ġcall": 936,
      "Ġshow": 937,
      "Ġbest": 938,
      "Ġmade": 939,
      "ax": 940,
      "Ġrequ": 941,
      "ĠPro": 942,
      "ix": 943,
      "ĠAn": 944,
      "Ġcar": 945,
      "ĠDe": 946,
      "Ġhome": 947,
      "Ġsur": 948,
      "Ġlast": 949,
      "Ġins": 950,
      "gram": 951,
      "ues": 952,
      "Ġdevelop": 953,
      "Ġass": 954,
      "Ġ&": 955,
      "ually": 956,
      "ving": 957,
      "ĠIf": 958,
      "ĠNew": 959,
      "Ġperson": 960,
      "Ġloc": 961,
      "Ġworld": 962,
      "ank": 963,
      "ollow": 964,
      "line": 965,
      "cy": 966,
      "Ġmin": 967,
      "Ġbr": 968,
      "Ġhand": 969,
      "li": 970,
      "Ġche": 971,
      "led": 972,
      "Ġinformation": 973,
      "Ġlead": 974,
      "chool": 975,
      "Ġbusiness": 976,
      "Ġfam": 977,
      "Ġused": 978,
      "Ġav": 979,
      "Ġmark": 980,
      "Ġear": 981,
      "...": 982,
      "ject": 983,
      "Ġmed": 984,
      "Ġmod": 985,
      "Ġtrans": 986,
      "ved": 987,
      "Ġsystem": 988,
      "pen": 989,
      "Ġlife": 990,
      ",âĢĿ": 991,
      "Ġdisc": 992,
      "Ġmem": 993,
      "Ġreally": 994,
      "ĠBut": 995,
      "We": 996,
      "ouse": 997,
      "ublic": 998,
      "Ġwhile": 999,
      "chn": 1000,
      "Ġinter": 1001,
      "Ġcre": 1002,
      "ple": 1003,
      "atch": 1004,
      "ng": 1005,
      "cept": 1006,
      "ness": 1007,
      "ros": 1008,
      "Ġgoing": 1009,
      "Ġret": 1010,
      "ave": 1011,
      "self": 1012,
      "ince": 1013,
      "az": 1014,
      "pr": 1015,
      "Ġsub": 1016,
      "Ġform": 1017,
      "ps": 1018,
      "ins": 1019,
      "Ġaround": 1020,
      "ata": 1021,
      "Ġeach": 1022,
      "Ġnum": 1023,
      "Ġsomet": 1024,
      "Ġgr": 1025,
      "Ġdet": 1026,
      "arm": 1027,
      "Ġsupport": 1028,
      "Ġart": 1029,
      "ather": 1030,
      "Ġthough": 1031,
      "Ġcount": 1032,
      "Ġpol": 1033,
      "Ġvis": 1034,
      "ience": 1035,
      "imes": 1036,
      ".\"": 1037,
      "ives": 1038,
      "Ġcomple": 1039,
      "read": 1040,
      "Ġcur": 1041,
      "Ġteam": 1042,
      "Ġser": 1043,
      "gg": 1044,
      "ines": 1045,
      "Ġdesign": 1046,
      "Ġfollow": 1047,
      "Ġstill": 1048,
      "ever": 1049,
      "land": 1050,
      "ize": 1051,
      "lease": 1052,
      "ween": 1053,
      "Ġbook": 1054,
      "ĠSh": 1055,
      "Ġrun": 1056,
      "akes": 1057,
      "ional": 1058,
      "ĠSo": 1059,
      "Ġsay": 1060,
      "Ġcare": 1061,
      "Ġed": 1062,
      "Ġadv": 1063,
      "irect": 1064,
      "Ġreal": 1065,
      "der": 1066,
      "Ġexp": 1067,
      "This": 1068,
      "Ġsl": 1069,
      "Ġdifferent": 1070,
      "ash": 1071,
      "ene": 1072,
      "Ġsame": 1073,
      "ex": 1074,
      "Ġprogram": 1075,
      "Ġstr": 1076,
      "ctions": 1077,
      "ĠAl": 1078,
      "Ġprovid": 1079,
      "It": 1080,
      "ah": 1081,
      "ale": 1082,
      "Ġsign": 1083,
      "ivers": 1084,
      "ages": 1085,
      "Ġcour": 1086,
      "ĠThey": 1087,
      "Ġsk": 1088,
      "Ġcommun": 1089,
      "ves": 1090,
      "Ġchar": 1091,
      "Ġpoint": 1092,
      "ets": 1093,
      "riend": 1094,
      "view": 1095,
      "Ġbetween": 1096,
      "Ġboth": 1097,
      "Ġplace": 1098,
      "Ġfeel": 1099,
      "Ġchild": 1100,
      "ustom": 1101,
      "Ġpur": 1102,
      "ittle": 1103,
      "Ġthree": 1104,
      "Ġpost": 1105,
      "Ġhapp": 1106,
      "Ġgl": 1107,
      "Ġaut": 1108,
      "man": 1109,
      "ute": 1110,
      "Ġstate": 1111,
      "Wh": 1112,
      "Ġlist": 1113,
      "ĠFor": 1114,
      "Ġlove": 1115,
      "ital": 1116,
      "Ġlot": 1117,
      "meric": 1118,
      "oun": 1119,
      "ways": 1120,
      "ĠAr": 1121,
      "Ġeas": 1122,
      "ars": 1123,
      "ature": 1124,
      "Ġfound": 1125,
      "the": 1126,
      "ety": 1127,
      "Ġbo": 1128,
      "ĠCl": 1129,
      "Ġfew": 1130,
      "ired": 1131,
      "ody": 1132,
      "Ġhealth": 1133,
      "ĠBe": 1134,
      "Ġprocess": 1135,
      "Ġcle": 1136,
      "Ġprof": 1137,
      "ton": 1138,
      "Ġfree": 1139,
      "ĠLe": 1140,
      "Ġmet": 1141,
      "Ġinterest": 1142,
      "ized": 1143,
      "ten": 1144,
      "ient": 1145,
      "Ġfull": 1146,
      "less": 1147,
      "Ġref": 1148,
      "ield": 1149,
      "Ġthings": 1150,
      "Ġfun": 1151,
      "Ġgener": 1152,
      "Ġcor": 1153,
      "ffect": 1154,
      "ering": 1155,
      "Ġreport": 1156,
      "uc": 1157,
      "Ġfr": 1158,
      "Ġtechn": 1159,
      "Ġlar": 1160,
      "thing": 1161,
      "Ġmonth": 1162,
      "oh": 1163,
      "ames": 1164,
      "Ġlittle": 1165,
      "Ġtop": 1166,
      "Ġext": 1167,
      "cl": 1168,
      "Ġusing": 1169,
      "ically": 1170,
      "Ġimport": 1171,
      "con": 1172,
      "Ġcent": 1173,
      "cent": 1174,
      "Ġgot": 1175,
      "Ġplan": 1176,
      "be": 1177,
      "ĠBl": 1178,
      "Ġcome": 1179,
      "ross": 1180,
      "Ġdef": 1181,
      "Ġopen": 1182,
      "Ġavail": 1183,
      "ished": 1184,
      "Ġduring": 1185,
      "tt": 1186,
      "vern": 1187,
      "ution": 1188,
      "ology": 1189,
      "bers": 1190,
      "Ġdata": 1191,
      "ĠAmeric": 1192,
      "Ġgame": 1193,
      "Ġiss": 1194,
      "Ġob": 1195,
      "ality": 1196,
      "ĠAd": 1197,
      "att": 1198,
      "Ġrest": 1199,
      "Ġsomething": 1200,
      "Ġnext": 1201,
      "Ġresp": 1202,
      "Ġkeep": 1203,
      "Ġanother": 1204,
      "ants": 1205,
      "ism": 1206,
      "ern": 1207,
      "Ġappro": 1208,
      ",\"": 1209,
      "arn": 1210,
      "Ġcontin": 1211,
      "iving": 1212,
      "ĠThere": 1213,
      "Ġsmall": 1214,
      "Ġcustom": 1215,
      "Ġwithout": 1216,
      "Ġcompany": 1217,
      "Ġpartic": 1218,
      "Ġposs": 1219,
      "ention": 1220,
      "ural": 1221,
      "Ġmust": 1222,
      "ists": 1223,
      "Ġweek": 1224,
      "ware": 1225,
      "Ġincluding": 1226,
      "Ġallow": 1227,
      "reen": 1228,
      "Ġfil": 1229,
      "Ġpri": 1230,
      "Ġput": 1231,
      "Ġtry": 1232,
      "Ġresult": 1233,
      "Ġalways": 1234,
      "ined": 1235,
      "Ġvar": 1236,
      "Ġlaw": 1237,
      "Ġfact": 1238,
      "Ġint": 1239,
      "Ġgrou": 1240,
      "ug": 1241,
      "Ġopt": 1242,
      "Ġbetter": 1243,
      "Ġhead": 1244,
      "Ġmight": 1245,
      "Ġbig": 1246,
      "Ġschool": 1247,
      "rand": 1248,
      "ared": 1249,
      "Ġconf": 1250,
      "Ġdist": 1251,
      "Ġstand": 1252,
      "Ġmarket": 1253,
      "Ġty": 1254,
      "Ġval": 1255,
      "Ġavailable": 1256,
      "Ġdri": 1257,
      "Ġpass": 1258,
      "Ġsecond": 1259,
      "ĠShe": 1260,
      "ĠHow": 1261,
      "blem": 1262,
      "Ġfriend": 1263,
      "gy": 1264,
      "ample": 1265,
      "iqu": 1266,
      "orn": 1267,
      "Ġhard": 1268,
      "Ġpat": 1269,
      "Ġorgan": 1270,
      "ining": 1271,
      "Ġsol": 1272,
      "Ġtri": 1273,
      "rist": 1274,
      "Ġnever": 1275,
      "Ġel": 1276,
      "Ġmain": 1277,
      "ploy": 1278,
      "Ġincre": 1279,
      "Ġquest": 1280,
      "ger": 1281,
      "Ġmov": 1282,
      "ier": 1283,
      "Ġca": 1284,
      "oot": 1285,
      "ense": 1286,
      "rol": 1287,
      "Ġwom": 1288,
      "Ġold": 1289,
      "Ġpay": 1290,
      "Ġask": 1291,
      "Ġrece": 1292,
      "Ġfamily": 1293,
      "Ġbuild": 1294,
      "Ġnumber": 1295,
      "Ġcr": 1296,
      "Ġsince": 1297,
      "els": 1298,
      "Ġinvest": 1299,
      "âĢ¦": 1300,
      "Ġbro": 1301,
      "Ġpublic": 1302,
      "Ġdays": 1303,
      "stand": 1304,
      "uck": 1305,
      "Ġlevel": 1306,
      "ted": 1307,
      "Ġcost": 1308,
      "Ġpower": 1309,
      "ĠInd": 1310,
      "uss": 1311,
      "oney": 1312,
      "aj": 1313,
      "ior": 1314,
      "illion": 1315,
      "rence": 1316,
      "Ġproblem": 1317,
      "ccess": 1318,
      "If": 1319,
      "ertain": 1320,
      "Ġagainst": 1321,
      "ral": 1322,
      "Ġdirect": 1323,
      "Ġservice": 1324,
      "Ġspec": 1325,
      "ird": 1326,
      "Ġsure": 1327,
      "Ġperform": 1328,
      "Ġide": 1329,
      "ling": 1330,
      "Ġgive": 1331,
      "Ġable": 1332,
      "Ġimportant": 1333,
      "ik": 1334,
      "Ġwr": 1335,
      "Ġhum": 1336,
      "ately": 1337,
      "iversity": 1338,
      "Ġclass": 1339,
      "Ġbelie": 1340,
      "ww": 1341,
      "Ġexperience": 1342,
      "Ġi": 1343,
      "Ġwin": 1344,
      "âĢĶ": 1345,
      "work": 1346,
      "Ġve": 1347,
      "Ġmus": 1348,
      "ĠPl": 1349,
      "pend": 1350,
      "Ġdi": 1351,
      "ours": 1352,
      "ĠâĢĶ": 1353,
      "Ġseem": 1354,
      "Ġwater": 1355,
      "ision": 1356,
      "ĠFr": 1357,
      "Ġexpl": 1358,
      "ĠâĢĺ": 1359,
      "ope": 1360,
      "ered": 1361,
      "ĠOn": 1362,
      "ĠAll": 1363,
      "Ġlet": 1364,
      "ĠThat": 1365,
      "Ġrese": 1366,
      "Ġinf": 1367,
      "ruct": 1368,
      "pping": 1369,
      "Ġfour": 1370,
      "inal": 1371,
      "here": 1372,
      "Ġlight": 1373,
      "Ġ'": 1374,
      "Ġunt": 1375,
      "Ġprovide": 1376,
      "Ġbre": 1377,
      "ats": 1378,
      "Ġwithin": 1379,
      "Ġpos": 1380,
      "ases": 1381,
      "ĠCon": 1382,
      "anc": 1383,
      "ĠIs": 1384,
      "ĠQ": 1385,
      "Ġsays": 1386,
      "Ġleg": 1387,
      "ĠSp": 1388,
      "me": 1389,
      "ĠEx": 1390,
      "Ġcurrent": 1391,
      "Ġjob": 1392,
      "Ġaccess": 1393,
      "Ġonline": 1394,
      "Ġless": 1395,
      "Ġgrow": 1396,
      "gin": 1397,
      "ards": 1398,
      "Ġpresent": 1399,
      "ER": 1400,
      "ably": 1401,
      "lo": 1402,
      "ote": 1403,
      "ĠTe": 1404,
      "He": 1405,
      "raph": 1406,
      "pped": 1407,
      "Ġarea": 1408,
      "med": 1409,
      "Ġorder": 1410,
      "Ġtoday": 1411,
      "Ġproper": 1412,
      "aut": 1413,
      "Ġtest": 1414,
      "Ġest": 1415,
      "pos": 1416,
      "Ġaway": 1417,
      "Ġturn": 1418,
      "outh": 1419,
      "ĠPh": 1420,
      "ron": 1421,
      "Ġbeh": 1422,
      "Ġgovern": 1423,
      "You": 1424,
      "co": 1425,
      "Ġseason": 1426,
      "ĠCol": 1427,
      "Ġoper": 1428,
      "Ġsal": 1429,
      "Ġpop": 1430,
      "cu": 1431,
      "Ġsit": 1432,
      "Ġmeet": 1433,
      "ok": 1434,
      "Ġterm": 1435,
      "Ġann": 1436,
      "ording": 1437,
      "Ġnight": 1438,
      "ffic": 1439,
      "ivid": 1440,
      "ission": 1441,
      "ration": 1442,
      "ients": 1443,
      "Ġcap": 1444,
      "ently": 1445,
      "ury": 1446,
      "As": 1447,
      "ency": 1448,
      "iron": 1449,
      "ider": 1450,
      "ator": 1451,
      "Ġeng": 1452,
      "ains": 1453,
      "Ġview": 1454,
      "Ġprom": 1455,
      "por": 1456,
      "eng": 1457,
      "Ġaddition": 1458,
      "Ġfood": 1459,
      "Ġlocal": 1460,
      "Ġuntil": 1461,
      "ised": 1462,
      "mon": 1463,
      "oint": 1464,
      "Ġchang": 1465,
      "ec": 1466,
      "ret": 1467,
      "Ġequ": 1468,
      "Ġworking": 1469,
      "Ġmaking": 1470,
      "'re": 1471,
      "Ġtru": 1472,
      "ĠZ": 1473,
      "tend": 1474,
      "Ġphot": 1475,
      "Ġtalk": 1476,
      "ott": 1477,
      "ember": 1478,
      "ann": 1479,
      "Ġlooking": 1480,
      "Ġprote": 1481,
      "Ġchange": 1482,
      "Ġthing": 1483,
      "hor": 1484,
      "orts": 1485,
      "Ġwebs": 1486,
      "Ġleft": 1487,
      "Ġprev": 1488,
      "ump": 1489,
      "soci": 1490,
      "Ġpast": 1491,
      "Ġsing": 1492,
      "Ġbas": 1493,
      "ability": 1494,
      "Ġsupp": 1495,
      "sh": 1496,
      "ley": 1497,
      "Ġhist": 1498,
      "Ġdev": 1499,
      "omm": 1500,
      "ĠUS": 1501,
      "ories": 1502,
      "Ġfac": 1503,
      "Ġconc": 1504,
      "ream": 1505,
      "orth": 1506,
      "ĠTo": 1507,
      "aring": 1508,
      "Ġpract": 1509,
      "Ġmoney": 1510,
      "Ġmove": 1511,
      "ify": 1512,
      "Ġprofess": 1513,
      "ead": 1514,
      "Ġproduct": 1515,
      "Ġcourse": 1516,
      "Ġintern": 1517,
      "Ġservices": 1518,
      "agement": 1519,
      "ney": 1520,
      "ĠRes": 1521,
      "ĠNo": 1522,
      "Ġspecial": 1523,
      "Ġsuccess": 1524,
      "ified": 1525,
      "ids": 1526,
      "lection": 1527,
      "Ġchildren": 1528,
      "ged": 1529,
      "ination": 1530,
      "Ġstudents": 1531,
      "Ġname": 1532,
      "Ġvide": 1533,
      "icle": 1534,
      "ĠOr": 1535,
      "bo": 1536,
      "joy": 1537,
      "of": 1538,
      "Ġconst": 1539,
      "ina": 1540,
      "iting": 1541,
      "Ġcomplete": 1542,
      "Ġeffect": 1543,
      "Ġhaving": 1544,
      "Ġevent": 1545,
      "fect": 1546,
      "Ġlarge": 1547,
      "aterial": 1548,
      "atter": 1549,
      "ization": 1550,
      "Ġindust": 1551,
      "Ġkind": 1552,
      "ising": 1553,
      "'m": 1554,
      "IN": 1555,
      "Ġenough": 1556,
      "Ġcheck": 1557,
      "Ġapplic": 1558,
      "let": 1559,
      "Ġroom": 1560,
      "aster": 1561,
      "conom": 1562,
      "ium": 1563,
      "Ġsite": 1564,
      "Ġproducts": 1565,
      "Ġside": 1566,
      "Ġwhy": 1567,
      "Ġcase": 1568,
      "ery": 1569,
      "Ġmen": 1570,
      "Ġinclude": 1571,
      "veral": 1572,
      "Ġoffer": 1573,
      "ajor": 1574,
      "lish": 1575,
      "Ġwrit": 1576,
      "ĠChrist": 1577,
      "ush": 1578,
      "Ġgroup": 1579,
      "Ġsw": 1580,
      "ohn": 1581,
      "Ġever": 1582,
      "by": 1583,
      "itions": 1584,
      "Ġoften": 1585,
      "Ġdidn": 1586,
      "Ġword": 1587,
      "Ġtoget": 1588,
      "Ġtogether": 1589,
      "augh": 1590,
      "part": 1591,
      "irl": 1592,
      "Ġemploy": 1593,
      "Ġunderstand": 1594,
      "ĠTr": 1595,
      "Ġcou": 1596,
      "Ġdra": 1597,
      "arent": 1598,
      "ready": 1599,
      "alf": 1600,
      "Ġtreat": 1601,
      "Ġtimes": 1602,
      "Ġpain": 1603,
      "Ġtell": 1604,
      "ries": 1605,
      "ĠWhen": 1606,
      "viron": 1607,
      "ocus": 1608,
      "Ġhouse": 1609,
      "ived": 1610,
      ".,": 1611,
      "Ġimpro": 1612,
      "enef": 1613,
      "Ġcommunity": 1614,
      "Ġrecord": 1615,
      "Ġcond": 1616,
      "Ġbit": 1617,
      "ĠCent": 1618,
      "Ġdone": 1619,
      "iven": 1620,
      "Ġreturn": 1621,
      "ills": 1622,
      "Ġactiv": 1623,
      "ured": 1624,
      "Ġnear": 1625,
      "Ġmeans": 1626,
      "min": 1627,
      "Ġcontrol": 1628,
      "ĠAt": 1629,
      "itive": 1630,
      "ON": 1631,
      "Ġsocial": 1632,
      "Ġexpect": 1633,
      "Ġlearn": 1634,
      "Ġbecome": 1635,
      "aim": 1636,
      "ots": 1637,
      "Ġ.": 1638,
      "Ġes": 1639,
      "ĠComm": 1640,
      "Ġbased": 1641,
      "Ġoffic": 1642,
      "For": 1643,
      "Ġaccount": 1644,
      "ential": 1645,
      "Ġbuy": 1646,
      "Ġalong": 1647,
      "une": 1648,
      "Ġline": 1649,
      "Ġresearch": 1650,
      "Ġdr": 1651,
      "rop": 1652,
      "Ġpa": 1653,
      "ĠCo": 1654,
      "Ġseveral": 1655,
      "Ġfollowing": 1656,
      "urs": 1657,
      "ĠWith": 1658,
      "St": 1659,
      "ĠMar": 1660,
      "Ġair": 1661,
      "ored": 1662,
      "ane": 1663,
      "ĠUniversity": 1664,
      "Ġalready": 1665,
      "uff": 1666,
      "ances": 1667,
      "Ġbody": 1668,
      "Ġenjoy": 1669,
      "Ġmembers": 1670,
      "Ġdevelopment": 1671,
      "Ġconne": 1672,
      "ĠMay": 1673,
      "Ġnews": 1674,
      "ee": 1675,
      "ĠFl": 1676,
      "Ġpercent": 1677,
      "'ve": 1678,
      "ĠWhat": 1679,
      "ither": 1680,
      "Ġtrad": 1681,
      "What": 1682,
      "Ġgetting": 1683,
      "ividual": 1684,
      "ĠMan": 1685,
      "Ġmar": 1686,
      "Ġshort": 1687,
      "Ġcountry": 1688,
      "AN": 1689,
      "utes": 1690,
      "Ġdetail": 1691,
      "fer": 1692,
      "ows": 1693,
      "Ġmil": 1694,
      "Ġ|": 1695,
      "ien": 1696,
      "Ġmakes": 1697,
      "Ġeduc": 1698,
      "Ġcreat": 1699,
      "Ġla": 1700,
      "pportun": 1701,
      "Ġtax": 1702,
      "oice": 1703,
      "son": 1704,
      "Ġstory": 1705,
      "Ġcalled": 1706,
      "Ġleast": 1707,
      "Ġfund": 1708,
      "side": 1709,
      "Ġeasy": 1710,
      "atures": 1711,
      "Ġmajor": 1712,
      "rap": 1713,
      "Ġocc": 1714,
      "osed": 1715,
      "Ġcertain": 1716,
      "Ġlive": 1717,
      "duct": 1718,
      "Ġwebsite": 1719,
      "Ġmean": 1720,
      "Ġlim": 1721,
      "ands": 1722,
      "Ġneeds": 1723,
      "Ġpossible": 1724,
      "Ġmillion": 1725,
      "crib": 1726,
      "ode": 1727,
      "vironment": 1728,
      "Ġ[": 1729,
      "Ġhold": 1730,
      "fort": 1731,
      "Ġlow": 1732,
      "ched": 1733,
      "Ġfar": 1734,
      "play": 1735,
      "Ġfav": 1736,
      "ES": 1737,
      "Ġemail": 1738,
      "Ġdoing": 1739,
      "Ġcreate": 1740,
      "aps": 1741,
      "tain": 1742,
      "Ġdoesn": 1743,
      "Ġwon": 1744,
      "ĠCar": 1745,
      "Ġquality": 1746,
      "idd": 1747,
      "ĠSc": 1748,
      "ĠAm": 1749,
      "Ġproject": 1750,
      "Ġfocus": 1751,
      "wards": 1752,
      "ĠEng": 1753,
      "not": 1754,
      "Ġvisit": 1755,
      "Ġey": 1756,
      "Ġfore": 1757,
      "Ġmom": 1758,
      "Ġcomes": 1759,
      "ians": 1760,
      "Ġbenef": 1761,
      "Ġothers": 1762,
      "ique": 1763,
      "Ġwent": 1764,
      "for": 1765,
      "Ġnon": 1766,
      "cially": 1767,
      "Ġcame": 1768,
      "br": 1769,
      "Ġindividual": 1770,
      "AT": 1771,
      "Ġhappen": 1772,
      "Ġgovernment": 1773,
      "enn": 1774,
      "There": 1775,
      "aken": 1776,
      "Ġopportun": 1777,
      "Ġpot": 1778,
      "ĠCan": 1779,
      "Ġcomput": 1780,
      "yle": 1781,
      "Ġpress": 1782,
      "Ġhours": 1783,
      "ption": 1784,
      "And": 1785,
      "uture": 1786,
      "ĠMy": 1787,
      "Ġdeal": 1788,
      "Ġhuman": 1789,
      "irm": 1790,
      "Ġtre": 1791,
      "Ġwomen": 1792,
      "ĠJohn": 1793,
      "Ġsoft": 1794,
      "Ġpersonal": 1795,
      "Ġreview": 1796,
      "Ġcamp": 1797,
      "Ġmind": 1798,
      "Ġlink": 1799,
      "Ġeconom": 1800,
      "Ġelect": 1801,
      "Ġyet": 1802,
      "most": 1803,
      "Ġmaterial": 1804,
      "app": 1805,
      "ully": 1806,
      "port": 1807,
      "lement": 1808,
      "Ġtook": 1809,
      "Ġorig": 1810,
      "Ġquick": 1811,
      "Ġspecific": 1812,
      "eral": 1813,
      "Ġyoung": 1814,
      "Ġcharact": 1815,
      "//": 1816,
      "Ġmult": 1817,
      "Ġbeaut": 1818,
      "An": 1819,
      "Ġonce": 1820,
      "Ġthought": 1821,
      "Ġnet": 1822,
      "ners": 1823,
      "Ġcut": 1824,
      "âĢ¢": 1825,
      "wh": 1826,
      "Ġactually": 1827,
      "atic": 1828,
      "Ġhot": 1829,
      "Ġparticular": 1830,
      "cing": 1831,
      "ĠGod": 1832,
      "Ġexample": 1833,
      "Ġident": 1834,
      "urther": 1835,
      "ster": 1836,
      "Ġcity": 1837,
      "Ġtold": 1838,
      "ĠRo": 1839,
      "Ġearly": 1840,
      "Ġclear": 1841,
      "Ġinvol": 1842,
      "Ġkey": 1843,
      "Ġbelow": 1844,
      "ference": 1845,
      "ĠApp": 1846,
      "ulation": 1847,
      "ĠBr": 1848,
      "Ġ--": 1849,
      "load": 1850,
      "uro": 1851,
      "ĠState": 1852,
      "Ġvideo": 1853,
      "Ġredu": 1854,
      "Ġstep": 1855,
      "Ġcontact": 1856,
      "verage": 1857,
      "ges": 1858,
      "Ġacross": 1859,
      "aff": 1860,
      "Ġfive": 1861,
      "ape": 1862,
      "Ġstrong": 1863,
      "Ġreason": 1864,
      "ateg": 1865,
      "room": 1866,
      "Ġfield": 1867,
      "Ġmusic": 1868,
      "AR": 1869,
      "itor": 1870,
      "Ġcompet": 1871,
      "Ġclose": 1872,
      "Ġbring": 1873,
      "mber": 1874,
      "Ġlater": 1875,
      "ensive": 1876,
      "Ġpurch": 1877,
      "Ġpage": 1878,
      "Ġstarted": 1879,
      "OR": 1880,
      "ches": 1881,
      "Ġrequire": 1882,
      "ides": 1883,
      "ĠSu": 1884,
      "lished": 1885,
      "Ġperfect": 1886,
      "://": 1887,
      "Ġfuture": 1888,
      "ift": 1889,
      "jects": 1890,
      "de": 1891,
      "Ġtem": 1892,
      "Ġcult": 1893,
      "cle": 1894,
      "Ġtyp": 1895,
      "lf": 1896,
      "lling": 1897,
      "Ġce": 1898,
      "Ġris": 1899,
      "'ll": 1900,
      "Ġchall": 1901,
      "Ġfriends": 1902,
      "book": 1903,
      "ources": 1904,
      "unch": 1905,
      "Ġheart": 1906,
      "Ġcir": 1907,
      "ĠDo": 1908,
      "Ġpriv": 1909,
      "Ġitem": 1910,
      "Ġvers": 1911,
      "!!": 1912,
      "Ġpack": 1913,
      "Ġwa": 1914,
      "use": 1915,
      "ĠSte": 1916,
      "ĠRep": 1917,
      "But": 1918,
      "Ġwind": 1919,
      "over": 1920,
      "ones": 1921,
      "err": 1922,
      "Ġhig": 1923,
      "ights": 1924,
      "Ġens": 1925,
      "So": 1926,
      "Ġseen": 1927,
      "ĠAmerican": 1928,
      "illed": 1929,
      "pro": 1930,
      "Ġmonths": 1931,
      "Ġspace": 1932,
      "Ġsum": 1933,
      "Ġcomb": 1934,
      "go": 1935,
      "iday": 1936,
      "Ġfilm": 1937,
      "ĠThese": 1938,
      "Ġtot": 1939,
      "ource": 1940,
      "ĠUnited": 1941,
      "Ġwalk": 1942,
      "urity": 1943,
      "Ġmanag": 1944,
      "Ġknown": 1945,
      "Ġanal": 1946,
      "icy": 1947,
      "oose": 1948,
      "Ġpar": 1949,
      "anies": 1950,
      "acy": 1951,
      "When": 1952,
      "ler": 1953,
      "Ġpick": 1954,
      "Ġrespons": 1955,
      "ĠFe": 1956,
      "utions": 1957,
      "Ġprob": 1958,
      "Ġdem": 1959,
      "ĠMed": 1960,
      "ĠX": 1961,
      "oon": 1962,
      "ĠNe": 1963,
      "ograph": 1964,
      "ĠHowever": 1965,
      "Ġhalf": 1966,
      "atural": 1967,
      "rain": 1968,
      "Ġauthor": 1969,
      "iod": 1970,
      "ĠCal": 1971,
      "Ġprice": 1972,
      "Ġphys": 1973,
      "How": 1974,
      "Ġappear": 1975,
      "Ġvari": 1976,
      "Ġindustry": 1977,
      "ĠYork": 1978,
      "ledge": 1979,
      "Ġwar": 1980,
      "new": 1981,
      "Ġcontent": 1982,
      "Ġanything": 1983,
      "org": 1984,
      "Ġpie": 1985,
      "Ġet": 1986,
      "Ġexc": 1987,
      "uation": 1988,
      "ĠIntern": 1989,
      "par": 1990,
      "Ġbegin": 1991,
      "ĠOne": 1992,
      "Ġenvironment": 1993,
      "Ġsomeone": 1994,
      "Ġsound": 1995,
      "ourn": 1996,
      "Ġrele": 1997,
      "Ġstore": 1998,
      "ister": 1999,
      "Ġfre": 2000,
      "Ġstay": 2001,
      "ai": 2002,
      "Ġshare": 2003,
      "cience": 2004,
      "ibility": 2005,
      "oor": 2006,
      "âĢĵ": 2007,
      "though": 2008,
      "Ġamong": 2009,
      "ips": 2010,
      "atur": 2011,
      "Ġplac": 2012,
      "Ġwhether": 2013,
      "Ġbelieve": 2014,
      "back": 2015,
      "ison": 2016,
      "lege": 2017,
      "Ġface": 2018,
      "urch": 2019,
      "ung": 2020,
      "resent": 2021,
      "Ġsearch": 2022,
      "Ġdiscuss": 2023,
      "hers": 2024,
      "Ġblog": 2025,
      "Ġhope": 2026,
      "ilities": 2027,
      "sw": 2028,
      "Ġmeas": 2029,
      "ilar": 2030,
      "Ġfront": 2031,
      "Ġdeli": 2032,
      "orld": 2033,
      "rew": 2034,
      "Ġstudy": 2035,
      "reet": 2036,
      "ental": 2037,
      "ctor": 2038,
      "ĠEn": 2039,
      "Ġener": 2040,
      "Ġabove": 2041,
      "ging": 2042,
      "ued": 2043,
      "Ġsuper": 2044,
      "pecially": 2045,
      "ĠÂ": 2046,
      "rict": 2047,
      "Ġrecomm": 2048,
      "Ġhistory": 2049,
      "Ġamount": 2050,
      "Ġcommon": 2051,
      "ED": 2052,
      "ĠCont": 2053,
      "ĠBro": 2054,
      "Ġgames": 2055,
      "Ġareas": 2056,
      "Ġwhole": 2057,
      "Ġrecommend": 2058,
      "ino": 2059,
      "Ġclaim": 2060,
      "osp": 2061,
      "Ġago": 2062,
      "Ġissues": 2063,
      "ply": 2064,
      "asing": 2065,
      "Ġenc": 2066,
      "ĠPr": 2067,
      "Ġeff": 2068,
      "Ġthird": 2069,
      "Ġgiven": 2070,
      "ĠNot": 2071,
      "Ġport": 2072,
      "ĠCount": 2073,
      "ille": 2074,
      "Ġeverything": 2075,
      "Ġsingle": 2076,
      "Ġquestion": 2077,
      "Ġant": 2078,
      "Ġgirl": 2079,
      "IS": 2080,
      "Ġjo": 2081,
      "Ġage": 2082,
      "fic": 2083,
      "Ġmor": 2084,
      "Ġpolit": 2085,
      "ators": 2086,
      "ogn": 2087,
      "abor": 2088,
      "Ġrelations": 2089,
      "Ġtaken": 2090,
      "ĠCity": 2091,
      "fully": 2092,
      "Ġpub": 2093,
      "Ġeither": 2094,
      "ams": 2095,
      "mb": 2096,
      "Ġplease": 2097,
      "ama": 2098,
      "Ġrange": 2099,
      "Ġmedia": 2100,
      "Ġdue": 2101,
      "Ġcompanies": 2102,
      "Ch": 2103,
      "af": 2104,
      "Ġbreak": 2105,
      "On": 2106,
      "ĠSy": 2107,
      "Ġtechnology": 2108,
      "selves": 2109,
      "Ġaddress": 2110,
      "ĠServ": 2111,
      "hod": 2112,
      "Ġess": 2113,
      "Ġfall": 2114,
      "ĠChe": 2115,
      "Ġsimple": 2116,
      "ided": 2117,
      "ilt": 2118,
      "Ġbad": 2119,
      "Ġworks": 2120,
      "Ġsix": 2121,
      "ites": 2122,
      "Ġtaking": 2123,
      "put": 2124,
      "Ġcra": 2125,
      "Ġmot": 2126,
      "ained": 2127,
      "ggest": 2128,
      "Ġred": 2129,
      "Ġresults": 2130,
      "Ġfavor": 2131,
      "imate": 2132,
      "Ġmess": 2133,
      "ĠEuro": 2134,
      "Ġalmost": 2135,
      "Ġperiod": 2136,
      "ball": 2137,
      "Ġfeatures": 2138,
      "cri": 2139,
      "Ġfurther": 2140,
      "Ġste": 2141,
      "Ġbar": 2142,
      "Ġwatch": 2143,
      "Ġvol": 2144,
      "Ġconsider": 2145,
      "rodu": 2146,
      "Ġcomputer": 2147,
      "Ġmanagement": 2148,
      "ĠMin": 2149,
      "Ġminutes": 2150,
      "ĠMe": 2151,
      "ĠYour": 2152,
      "Ġabs": 2153,
      "time": 2154,
      "come": 2155,
      ".)": 2156,
      "EN": 2157,
      "Ġ/": 2158,
      "ried": 2159,
      "cell": 2160,
      "Ġdel": 2161,
      "Ġpret": 2162,
      "Ġnecess": 2163,
      "ĠInst": 2164,
      "ring": 2165,
      "Ġlikely": 2166,
      "dd": 2167,
      "chie": 2168,
      "Ġsex": 2169,
      "Ġaff": 2170,
      "Ġtrying": 2171,
      "ially": 2172,
      "ĠMc": 2173,
      "Ġquestions": 2174,
      "Ġbuilding": 2175,
      "Ġaccording": 2176,
      "Ġblack": 2177,
      "Ġvalue": 2178,
      "Ġaud": 2179,
      "Ġoffice": 2180,
      "Ġidea": 2181,
      "Ġtrack": 2182,
      "Ġinstall": 2183,
      "Ġ#": 2184,
      "iful": 2185,
      "Ġpoints": 2186,
      "itted": 2187,
      "Ġself": 2188,
      "Ġcred": 2189,
      "ĠNational": 2190,
      "ires": 2191,
      "used": 2192,
      "roll": 2193,
      "ĠPres": 2194,
      "Ġseries": 2195,
      "Ġasked": 2196,
      "Re": 2197,
      "Ġclean": 2198,
      "Ġeveryone": 2199,
      "gress": 2200,
      "year": 2201,
      "che": 2202,
      "ication": 2203,
      "Ġsuggest": 2204,
      "Ġmiss": 2205,
      "ples": 2206,
      "vent": 2207,
      "Ġz": 2208,
      "idence": 2209,
      "Ġtool": 2210,
      "ĠGu": 2211,
      "Ġenergy": 2212,
      "To": 2213,
      "AS": 2214,
      "Ġhost": 2215,
      "opy": 2216,
      "iously": 2217,
      "gest": 2218,
      "ĠOur": 2219,
      "Ġpretty": 2220,
      "Ġupd": 2221,
      "Ġneeded": 2222,
      "Ġrequired": 2223,
      "Ġbehind": 2224,
      "head": 2225,
      "ively": 2226,
      "ony": 2227,
      "Ġswe": 2228,
      "Ġwond": 2229,
      "Ġhon": 2230,
      "vert": 2231,
      "Ġhowever": 2232,
      "cer": 2233,
      "Ġhtt": 2234,
      "Ġstop": 2235,
      "Ġsize": 2236,
      "Ġcal": 2237,
      "Ġmodel": 2238,
      "Ġ:": 2239,
      "Ġrepl": 2240,
      "ĠPart": 2241,
      "Ġrad": 2242,
      "ification": 2243,
      "Ġespecially": 2244,
      "Ġdig": 2245,
      "Ġanim": 2246,
      "Ġcoming": 2247,
      "obal": 2248,
      "ancial": 2249,
      "rug": 2250,
      "Ġentire": 2251,
      "aur": 2252,
      "iver": 2253,
      "Ġweb": 2254,
      "Ġoffers": 2255,
      "ficult": 2256,
      "ID": 2257,
      "Ġsent": 2258,
      "Ġperformance": 2259,
      "ĠAust": 2260,
      "Ġcustomers": 2261,
      "ĠBo": 2262,
      "anks": 2263,
      "agn": 2264,
      "Ġcontinue": 2265,
      "Ġelse": 2266,
      "Ġprobably": 2267,
      "Ġcrit": 2268,
      "itch": 2269,
      "Ġbrand": 2270,
      "amer": 2271,
      "where": 2272,
      "elt": 2273,
      "ĠNorth": 2274,
      "Ġincludes": 2275,
      "AL": 2276,
      "ume": 2277,
      "ĠEurope": 2278,
      "Ġvarious": 2279,
      "Ġdou": 2280,
      "ĠWill": 2281,
      "Ġposition": 2282,
      "ĠTH": 2283,
      "resh": 2284,
      "Ġquite": 2285,
      "Ġsens": 2286,
      "Ġinit": 2287,
      "Ġadded": 2288,
      "ili": 2289,
      "yn": 2290,
      "Ġdog": 2291,
      "icro": 2292,
      "irt": 2293,
      "cient": 2294,
      "Ġwanted": 2295,
      "Ġlay": 2296,
      "ief": 2297,
      "oid": 2298,
      "Ġdifficult": 2299,
      "IT": 2300,
      "Ġdocu": 2301,
      "Ġparticip": 2302,
      "ĠBar": 2303,
      "Ġsignific": 2304,
      "Ġtype": 2305,
      "Ġfail": 2306,
      "Ġattack": 2307,
      "ules": 2308,
      "Ġtou": 2309,
      "Ġexist": 2310,
      "ĠSec": 2311,
      "Ġprotect": 2312,
      "Ġblood": 2313,
      "Ġland": 2314,
      "Ġrather": 2315,
      "Ġgra": 2316,
      "ĠAfter": 2317,
      "ables": 2318,
      "Ġsoon": 2319,
      "my": 2320,
      "lex": 2321,
      "ĠDep": 2322,
      "Ġprovided": 2323,
      "Ġcharacter": 2324,
      "apt": 2325,
      "Ġspend": 2326,
      "Ġdeterm": 2327,
      "Ġimprove": 2328,
      "Ġtext": 2329,
      "Ġevents": 2330,
      "Ġrisk": 2331,
      "itten": 2332,
      "Ġrelationship": 2333,
      "Ġwhite": 2334,
      "Ġprovides": 2335,
      "Ġways": 2336,
      "Ġdisplay": 2337,
      "ĠGo": 2338,
      "Ġtraining": 2339,
      "Ġnatural": 2340,
      "Ġplayers": 2341,
      "Ġissue": 2342,
      "Ġground": 2343,
      "angu": 2344,
      "Ġoil": 2345,
      "ĠInc": 2346,
      "ĠPark": 2347,
      "Ġprofessional": 2348,
      "Ġtravel": 2349,
      "uge": 2350,
      "urance": 2351,
      "ĠPar": 2352,
      "rie": 2353,
      "Ġnothing": 2354,
      "Ġmethod": 2355,
      "Ġliving": 2356,
      "Ġselect": 2357,
      "iol": 2358,
      "Ġaccept": 2359,
      "Ġsimply": 2360,
      "Ġball": 2361,
      "Ġisn": 2362,
      "Ġknowledge": 2363,
      "Ġstat": 2364,
      "eds": 2365,
      "Ġforward": 2366,
      "itional": 2367,
      "Ġproperty": 2368,
      "IC": 2369,
      "val": 2370,
      "Ġdam": 2371,
      "Ġcannot": 2372,
      "ĠJan": 2373,
      "Ġupon": 2374,
      "Ġsimilar": 2375,
      "Ġproblems": 2376,
      "Ġele": 2377,
      "ĠSchool": 2378,
      "Ġheld": 2379,
      "Ġcook": 2380,
      "Ġassist": 2381,
      "Ġpict": 2382,
      "ĠPe": 2383,
      "ruction": 2384,
      "Ġfinal": 2385,
      "ĠAf": 2386,
      "hib": 2387,
      "Ġsqu": 2388,
      "Ġsaw": 2389,
      "ĠEd": 2390,
      "ological": 2391,
      "Ġweeks": 2392,
      "arget": 2393,
      "Ġexperien": 2394,
      "Ġwords": 2395,
      "Ġmatter": 2396,
      "ĠHis": 2397,
      "Ġeducation": 2398,
      "Ġchanges": 2399,
      "ĠIm": 2400,
      "ĠWorld": 2401,
      "Ġansw": 2402,
      "Ġpark": 2403,
      "Ġextra": 2404,
      "minist": 2405,
      "ees": 2406,
      "mit": 2407,
      "aging": 2408,
      "uf": 2409,
      "omes": 2410,
      "ructure": 2411,
      "Ġlog": 2412,
      "Ġimpact": 2413,
      "Ġmedical": 2414,
      "ask": 2415,
      "obile": 2416,
      "Ġseems": 2417,
      "Ġrecogn": 2418,
      "US": 2419,
      "ĠAb": 2420,
      "ĠGl": 2421,
      "Ġinn": 2422,
      "Ġhy": 2423,
      "eter": 2424,
      "ĠCor": 2425,
      "Ġunique": 2426,
      "Ġannoun": 2427,
      "ole": 2428,
      "sy": 2429,
      "Ġtit": 2430,
      "ĠTw": 2431,
      "aching": 2432,
      "Ġrecent": 2433,
      "Ġconsum": 2434,
      "Ġparent": 2435,
      "Ġassoci": 2436,
      "ague": 2437,
      "pril": 2438,
      "--": 2439,
      "Ġcard": 2440,
      "Ġwriting": 2441,
      "aily": 2442,
      "ned": 2443,
      "reg": 2444,
      "ĠDes": 2445,
      "ĠGe": 2446,
      "Ġestab": 2447,
      "eth": 2448,
      "pper": 2449,
      "ĠStates": 2450,
      "empt": 2451,
      "umb": 2452,
      "Ġcell": 2453,
      "ĠAmerica": 2454,
      "action": 2455,
      "Ġdeath": 2456,
      "Ġdescrib": 2457,
      "Ġpopular": 2458,
      "Ġfit": 2459,
      "Ġrunning": 2460,
      "Ġgeneral": 2461,
      "Ġbeautiful": 2462,
      "Ġopp": 2463,
      "astic": 2464,
      "Ġrequest": 2465,
      "reme": 2466,
      "Ġdeb": 2467,
      "ibr": 2468,
      "Ġparty": 2469,
      "Ġrepresent": 2470,
      "Ġmember": 2471,
      "Ġachie": 2472,
      "Ġinj": 2473,
      "itting": 2474,
      "lt": 2475,
      "Ġengine": 2476,
      "rect": 2477,
      "Ġinde": 2478,
      "Ġskin": 2479,
      "ĠOct": 2480,
      "Ġprint": 2481,
      "Ġnetwork": 2482,
      "Ġsignificant": 2483,
      "ĠSouth": 2484,
      "istic": 2485,
      "Ġincrease": 2486,
      "Ġfig": 2487,
      "Ġstaff": 2488,
      "ĠKe": 2489,
      "Ġfeature": 2490,
      "Ġroad": 2491,
      "Ġemb": 2492,
      "medi": 2493,
      "gle": 2494,
      "Ġfire": 2495,
      "Ġnice": 2496,
      "Ġkids": 2497,
      "Ġtrue": 2498,
      "face": 2499,
      "ciety": 2500,
      "ris": 2501,
      "Ġfast": 2502,
      "ĠPer": 2503,
      "Ġinfl": 2504,
      "ĠSm": 2505,
      "Ġrate": 2506,
      "ĠJune": 2507,
      "Ġarticle": 2508,
      "anced": 2509,
      "Ġdate": 2510,
      "Ġfoot": 2511,
      "Ġensure": 2512,
      "Ġtotal": 2513,
      "Ġsales": 2514,
      "Ġdom": 2515,
      "Ġnational": 2516,
      "Ġgrad": 2517,
      "ĠCenter": 2518,
      "Ġsend": 2519,
      "Ġusually": 2520,
      "Ġlonger": 2521,
      "Ġloss": 2522,
      "ĠJust": 2523,
      "Ġspeak": 2524,
      "Ġtakes": 2525,
      "Ġterms": 2526,
      "Ġconduct": 2527,
      "Ġrole": 2528,
      "Ġsoftware": 2529,
      "Ġill": 2530,
      "ival": 2531,
      "Ġshows": 2532,
      "based": 2533,
      "ament": 2534,
      "oph": 2535,
      "Ġrecently": 2536,
      "Ġcolor": 2537,
      "OS": 2538,
      "Ġprep": 2539,
      "ĠQu": 2540,
      "ada": 2541,
      "Ġtable": 2542,
      "Ġcover": 2543,
      "oes": 2544,
      "Al": 2545,
      "isc": 2546,
      "Ġthroughout": 2547,
      "Ġdefin": 2548,
      "Ġofficial": 2549,
      "Ġoriginal": 2550,
      "Ġbal": 2551,
      "AC": 2552,
      "Ġbase": 2553,
      "Ġsecurity": 2554,
      "ĠGr": 2555,
      "izing": 2556,
      "Ġblock": 2557,
      "Ġopportunity": 2558,
      "Ġaction": 2559,
      "Ġuser": 2560,
      "Ġcouple": 2561,
      "Ġhigher": 2562,
      "Ġdesigned": 2563,
      "Ġsense": 2564,
      "Ġwide": 2565,
      "oura": 2566,
      "Ġagree": 2567,
      "aving": 2568,
      "Ġtreatment": 2569,
      "Ġmoment": 2570,
      "RE": 2571,
      "ze": 2572,
      "Ġsle": 2573,
      "ĠSome": 2574,
      "ĠCounty": 2575,
      "nes": 2576,
      "Ġconcern": 2577,
      "Ġwall": 2578,
      "oe": 2579,
      "Ġyourself": 2580,
      "Ġnorm": 2581,
      "Ġcreated": 2582,
      "Ġprograms": 2583,
      "ĠPresident": 2584,
      "ĠBy": 2585,
      "Ġphone": 2586,
      "Ġhit": 2587,
      "ĠJu": 2588,
      "Ġfa": 2589,
      "ĠSept": 2590,
      "Ġleaders": 2591,
      "Ġpric": 2592,
      "ederal": 2593,
      "Ġstri": 2594,
      "Ġstock": 2595,
      "Ġconnect": 2596,
      "Ġoptions": 2597,
      "Ġ...": 2598,
      "Ġsong": 2599,
      "ĠReg": 2600,
      "Ġregard": 2601,
      "Ġvict": 2602,
      "Ġreceive": 2603,
      "Ġoutside": 2604,
      "attle": 2605,
      "Ġetc": 2606,
      "Ġready": 2607,
      "ĠSpe": 2608,
      "Ġrights": 2609,
      "Ġbox": 2610,
      "Ġleave": 2611,
      "ude": 2612,
      "Ġlat": 2613,
      "ĠPol": 2614,
      "Ġinside": 2615,
      "oring": 2616,
      "Ġcontrib": 2617,
      "ĠEm": 2618,
      "Ġcurrently": 2619,
      "irit": 2620,
      "ĠHar": 2621,
      "ops": 2622,
      "Ġworth": 2623,
      "Ġsystems": 2624,
      "ĠPre": 2625,
      "right": 2626,
      "ĠAct": 2627,
      "bit": 2628,
      "ĠMark": 2629,
      "Ġdetails": 2630,
      "Ġfirm": 2631,
      "ĠNow": 2632,
      "ĠUs": 2633,
      "ĠWeb": 2634,
      "Ġfunction": 2635,
      "Ġapplication": 2636,
      "Ġversion": 2637,
      "OU": 2638,
      "Ġusers": 2639,
      "Ġround": 2640,
      "Ġsafe": 2641,
      "Ġut": 2642,
      "amed": 2643,
      "na": 2644,
      "Ġregular": 2645,
      "ffects": 2646,
      "Ġwoman": 2647,
      "ĠMr": 2648,
      "Ġpaper": 2649,
      "Ġcomfort": 2650,
      "Ġhappy": 2651,
      "Ã©": 2652,
      "Ġreceived": 2653,
      "Ġreading": 2654,
      "Ġfight": 2655,
      "icles": 2656,
      "Ġstra": 2657,
      "Ġcoll": 2658,
      "ĠHigh": 2659,
      "Ġbooks": 2660,
      "ufact": 2661,
      "ett": 2662,
      "adem": 2663,
      "iff": 2664,
      "Ġprivate": 2665,
      "Ġthemselves": 2666,
      "With": 2667,
      "Ġdrug": 2668,
      "Ġexam": 2669,
      "ĠHouse": 2670,
      "Ġdeep": 2671,
      "iddle": 2672,
      "Ġitems": 2673,
      "Ġlost": 2674,
      "Ġlegal": 2675,
      "ĠTra": 2676,
      "aining": 2677,
      "Ġcause": 2678,
      "ĠAg": 2679,
      "Ġrespect": 2680,
      "Ġpractice": 2681,
      "Ġclick": 2682,
      "Ġadditional": 2683,
      "Ġmorning": 2684,
      "Ġobs": 2685,
      "Ġbed": 2686,
      "Ġple": 2687,
      "Ġlate": 2688,
      "ĠMarch": 2689,
      "Ġdepend": 2690,
      "Ġinternational": 2691,
      "Ġdefe": 2692,
      "Ġchoose": 2693,
      "ĠAug": 2694,
      "Ġpan": 2695,
      "ĠApril": 2696,
      "Ġanyone": 2697,
      "Ġfinancial": 2698,
      "Ġdest": 2699,
      "azing": 2700,
      "uary": 2701,
      "oud": 2702,
      "aign": 2703,
      "Ġsat": 2704,
      "haps": 2705,
      "atory": 2706,
      "ulated": 2707,
      "Ġhands": 2708,
      "Ġcareer": 2709,
      "Ġtarget": 2710,
      "artment": 2711,
      "Ġbott": 2712,
      "aturday": 2713,
      "yl": 2714,
      "Ġmix": 2715,
      "ĠMore": 2716,
      "arter": 2717,
      "Ġpolicy": 2718,
      "olution": 2719,
      "ĠWest": 2720,
      "www": 2721,
      "Ġpers": 2722,
      "Ġexact": 2723,
      "That": 2724,
      "ĠDon": 2725,
      "Ġwasn": 2726,
      "ishing": 2727,
      "Ġcourt": 2728,
      "Ġprior": 2729,
      "Ph": 2730,
      "Ġop": 2731,
      "Ġcollect": 2732,
      "iet": 2733,
      "ober": 2734,
      "ville": 2735,
      "Ġlit": 2736,
      "ĠComp": 2737,
      "Ġformer": 2738,
      "Ġpotential": 2739,
      "urg": 2740,
      "Ġability": 2741,
      "earch": 2742,
      "Ġgrowth": 2743,
      "Ġchalleng": 2744,
      "Ġsil": 2745,
      "ades": 2746,
      "fl": 2747,
      "ĠWar": 2748,
      "Ġattend": 2749,
      "Ġsaf": 2750,
      "Ġdeg": 2751,
      "Ġscreen": 2752,
      "Ġrelease": 2753,
      "Ġteac": 2754,
      "AM": 2755,
      "My": 2756,
      "ĠDr": 2757,
      "Ġcool": 2758,
      "Ġplayer": 2759,
      "Ġveh": 2760,
      "ises": 2761,
      "ĠSer": 2762,
      "iforn": 2763,
      "Ġlear": 2764,
      "Ġeyes": 2765,
      "Ġlives": 2766,
      "'d": 2767,
      "All": 2768,
      "Ġfavorite": 2769,
      "kend": 2770,
      "Ġvia": 2771,
      "Ġquickly": 2772,
      "Our": 2773,
      "Ġmatch": 2774,
      "Sh": 2775,
      "Ġclos": 2776,
      "erc": 2777,
      "Ġsus": 2778,
      "Ġdecision": 2779,
      "Ġnecessary": 2780,
      "like": 2781,
      "ĠAssoci": 2782,
      "aves": 2783,
      "Ġdrive": 2784,
      "Ġgoal": 2785,
      "pri": 2786,
      "Ġbegan": 2787,
      "ĠAustral": 2788,
      "imum": 2789,
      "ĠDav": 2790,
      "ached": 2791,
      "Ġcases": 2792,
      "idge": 2793,
      "ground": 2794,
      "Ġinvolved": 2795,
      "OT": 2796,
      "Ġemer": 2797,
      "Ġviol": 2798,
      "....": 2799,
      "ought": 2800,
      "Ġprim": 2801,
      "lier": 2802,
      "Ġlangu": 2803,
      "ek": 2804,
      "oke": 2805,
      "ales": 2806,
      "Ġitself": 2807,
      "ĠPat": 2808,
      "sc": 2809,
      "Ġx": 2810,
      "Ġdro": 2811,
      "Ġprojects": 2812,
      "Ġreported": 2813,
      "ĠStud": 2814,
      "ana": 2815,
      "Ġindic": 2816,
      "Ġmeeting": 2817,
      "Ġcoun": 2818,
      "edd": 2819,
      "Ġmach": 2820,
      "ĠLa": 2821,
      "Ġlevels": 2822,
      "Ġfair": 2823,
      "ĠOff": 2824,
      "Ġappe": 2825,
      "Ġplaying": 2826,
      "Ġexpress": 2827,
      "cip": 2828,
      "Ġresources": 2829,
      "Ġarri": 2830,
      "Ġintrodu": 2831,
      "ipping": 2832,
      "Ġneg": 2833,
      "Ġcontract": 2834,
      "Ġrelated": 2835,
      "Ġsurpr": 2836,
      "ING": 2837,
      "Ġsummer": 2838,
      "Ġtouch": 2839,
      "onse": 2840,
      "ĠDay": 2841,
      "aby": 2842,
      "Ġsett": 2843,
      "Ġleading": 2844,
      "At": 2845,
      "Ġworked": 2846,
      "onday": 2847,
      "Ġapply": 2848,
      "Ġpropos": 2849,
      "hood": 2850,
      "Ġaverage": 2851,
      "rel": 2852,
      "ĠMich": 2853,
      "Ġinsp": 2854,
      "ms": 2855,
      "erve": 2856,
      "ese": 2857,
      "Ġstates": 2858,
      "Ġlooks": 2859,
      "Ġdownload": 2860,
      "ĠWhile": 2861,
      "ĠArt": 2862,
      "ifornia": 2863,
      "inary": 2864,
      "Ġpred": 2865,
      "Ġincluded": 2866,
      "cast": 2867,
      "sp": 2868,
      "Ġpull": 2869,
      "Ġstyle": 2870,
      "Ġexcept": 2871,
      "Ġplat": 2872,
      "Ġwonder": 2873,
      "ma": 2874,
      "Ġaw": 2875,
      "Ġchance": 2876,
      "Ġboard": 2877,
      "Ġlower": 2878,
      "unday": 2879,
      "Ġbi": 2880,
      "Ġinstead": 2881,
      "Ġcosts": 2882,
      "Ġhair": 2883,
      "Ġattention": 2884,
      "Ġlatest": 2885,
      "Ġskills": 2886,
      "ĠDepartment": 2887,
      "ming": 2888,
      "Ġeasily": 2889,
      "Ġrent": 2890,
      "Ġknew": 2891,
      "Ġimmedi": 2892,
      "Ġpurchase": 2893,
      "ester": 2894,
      "ĠEl": 2895,
      "Ġgroups": 2896,
      "aught": 2897,
      "Be": 2898,
      "ipment": 2899,
      "Ġattempt": 2900,
      "Ġinteresting": 2901,
      "Ġcustomer": 2902,
      "ession": 2903,
      "Ġdise": 2904,
      "Ġbecame": 2905,
      "Ġgen": 2906,
      "uth": 2907,
      "Ġproduction": 2908,
      "ecut": 2909,
      "off": 2910,
      "Ġled": 2911,
      "ĠSan": 2912,
      "uses": 2913,
      "unt": 2914,
      "Ġdraw": 2915,
      "ĠAfric": 2916,
      "Ġri": 2917,
      "Ġsubject": 2918,
      "Ġautom": 2919,
      "Ġwritten": 2920,
      "ĠSen": 2921,
      "Ġdead": 2922,
      "Ġgoes": 2923,
      "Ġsafety": 2924,
      "Ġhor": 2925,
      "reng": 2926,
      "itc": 2927,
      "Ġsepar": 2928,
      "Ġmass": 2929,
      "Ġallows": 2930,
      "Ġcountries": 2931,
      "Ġsaying": 2932,
      "Ġ,": 2933,
      "hel": 2934,
      "Ġremember": 2935,
      "board": 2936,
      "ashing": 2937,
      "OM": 2938,
      "Ġcat": 2939,
      "Ġtown": 2940,
      "str": 2941,
      "Ġord": 2942,
      "hern": 2943,
      "ĠFriday": 2944,
      "ĠFeb": 2945,
      "Ġcand": 2946,
      "oul": 2947,
      "ffee": 2948,
      "ysis": 2949,
      "hold": 2950,
      "itation": 2951,
      "ĠPa": 2952,
      "Ġeffective": 2953,
      "Ġstru": 2954,
      "ĠNews": 2955,
      "Ġstandard": 2956,
      "Ġcampaign": 2957,
      "cks": 2958,
      "Ġfresh": 2959,
      "Ġhuge": 2960,
      "cil": 2961,
      "ĠHere": 2962,
      "Ġlearning": 2963,
      "Ġactivities": 2964,
      "pose": 2965,
      "su": 2966,
      "Ġpresident": 2967,
      "Ġfelt": 2968,
      "Ġhear": 2969,
      "Ġmyself": 2970,
      "ĠHealth": 2971,
      "Ġcommit": 2972,
      "ĠJuly": 2973,
      "Ġcy": 2974,
      "urb": 2975,
      "Ġdevice": 2976,
      "Ġcapt": 2977,
      "Ġconditions": 2978,
      "ray": 2979,
      "aly": 2980,
      "They": 2981,
      "Ġcredit": 2982,
      "ox": 2983,
      "Ġjud": 2984,
      "Ġtele": 2985,
      "airs": 2986,
      "gu": 2987,
      "light": 2988,
      "aste": 2989,
      "iple": 2990,
      "Ġgets": 2991,
      "Ġge": 2992,
      "Ġchoice": 2993,
      "field": 2994,
      "verse": 2995,
      "Ġimage": 2996,
      "Ġdecided": 2997,
      "Ġpatients": 2998,
      "ha": 2999,
      "atives": 3000,
      "Ġbuilt": 3001,
      "Ġintegr": 3002,
      "asons": 3003,
      "illing": 3004,
      "key": 3005,
      "Ġcomment": 3006,
      "Ġvac": 3007,
      "Ġencoura": 3008,
      "Ġgreen": 3009,
      "Ġstudent": 3010,
      "orks": 3011,
      "Ġmother": 3012,
      "ĠHer": 3013,
      "clus": 3014,
      "Ġmid": 3015,
      "Ġmention": 3016,
      "Ġlooked": 3017,
      "Ġtal": 3018,
      "erous": 3019,
      "Ġapproach": 3020,
      "Ġwrong": 3021,
      "Ġpolitical": 3022,
      "ests": 3023,
      "rought": 3024,
      "ĠMon": 3025,
      "ĠChar": 3026,
      "Ġpressure": 3027,
      "iction": 3028,
      "Ġmodern": 3029,
      "ening": 3030,
      "Ġones": 3031,
      "Ġglobal": 3032,
      "ule": 3033,
      "Ġcross": 3034,
      "Ġheard": 3035,
      "ovember": 3036,
      "Ġfile": 3037,
      "Ġmanufact": 3038,
      "Ġsn": 3039,
      "Ġsell": 3040,
      "Ġcenter": 3041,
      "ĠCour": 3042,
      "Ġlif": 3043,
      "Ġsave": 3044,
      "Ġqual": 3045,
      "Ġdaily": 3046,
      "idered": 3047,
      "iam": 3048,
      "Ġpath": 3049,
      "vey": 3050,
      "usiness": 3051,
      "Ġvariety": 3052,
      "ham": 3053,
      "ĠAdd": 3054,
      "bor": 3055,
      "wood": 3056,
      "Ġep": 3057,
      "Ġtrail": 3058,
      "ĠSw": 3059,
      "Ġimm": 3060,
      "ension": 3061,
      "Ġplans": 3062,
      "Ġprin": 3063,
      "One": 3064,
      "enge": 3065,
      "Ġoption": 3066,
      "king": 3067,
      "Ġgave": 3068,
      "Ġclients": 3069,
      "Ġparts": 3070,
      "Ġpartners": 3071,
      "Ġpolice": 3072,
      "fficient": 3073,
      "ĠCalifornia": 3074,
      "Ġaffect": 3075,
      "Ġaware": 3076,
      "ences": 3077,
      "Ġnature": 3078,
      "ĠOb": 3079,
      "Ġdigital": 3080,
      "Ġplatform": 3081,
      "Ġlab": 3082,
      "Ġnation": 3083,
      "rote": 3084,
      "rown": 3085,
      "chan": 3086,
      "Ġbenefits": 3087,
      "EO": 3088,
      "Ġboy": 3089,
      "ications": 3090,
      "ĠNet": 3091,
      "Ġstarting": 3092,
      "Ġcele": 3093,
      "ournal": 3094,
      "enty": 3095,
      "ĠFace": 3096,
      "Ġnote": 3097,
      "avy": 3098,
      "Ġdark": 3099,
      "ĠThen": 3100,
      "Ġamazing": 3101,
      "Ġcompletely": 3102,
      "EC": 3103,
      "ida": 3104,
      "ceed": 3105,
      "Ġinvestig": 3106,
      "gar": 3107,
      "ram": 3108,
      "Ġlic": 3109,
      "iring": 3110,
      "Ġhighly": 3111,
      "pite": 3112,
      "unn": 3113,
      "Ġsubs": 3114,
      "Ġdiv": 3115,
      "?âĢĿ": 3116,
      "name": 3117,
      "itary": 3118,
      "Ġdoor": 3119,
      "apan": 3120,
      "Ġflow": 3121,
      "Ġpen": 3122,
      "Ġhol": 3123,
      "Cl": 3124,
      "Ġ+": 3125,
      "urning": 3126,
      "just": 3127,
      "ald": 3128,
      "Ġlimited": 3129,
      "cription": 3130,
      "Ġdocument": 3131,
      "Ġeffects": 3132,
      "ĠDis": 3133,
      "Ġshall": 3134,
      "mercial": 3135,
      "Ġexpected": 3136,
      "ospital": 3137,
      "uate": 3138,
      "Ġtour": 3139,
      "ĠTV": 3140,
      "Ġweekend": 3141,
      "Ġmovie": 3142,
      "ĠInt": 3143,
      "Ġadminist": 3144,
      "bert": 3145,
      "Ġsold": 3146,
      "ĠSunday": 3147,
      "cies": 3148,
      "Ġgold": 3149,
      "ruit": 3150,
      "ĠVal": 3151,
      "Ġsometimes": 3152,
      "IL": 3153,
      "Ġfine": 3154,
      "Ġgives": 3155,
      "Ġmaintain": 3156,
      "Ġconsist": 3157,
      "ĠWell": 3158,
      "ĠAugust": 3159,
      "Ġstuff": 3160,
      "Ġrout": 3161,
      "Ġeval": 3162,
      "Ġmaterials": 3163,
      "Ġcup": 3164,
      "Ġcamer": 3165,
      "alt": 3166,
      "Ġtrust": 3167,
      "Ġmarketing": 3168,
      "idents": 3169,
      "Ġpiece": 3170,
      "Ġprogress": 3171,
      "oogle": 3172,
      "Ġplayed": 3173,
      "iding": 3174,
      "Ġimplement": 3175,
      "orge": 3176,
      "ara": 3177,
      "Ġexcell": 3178,
      "Ġresponse": 3179,
      "ĠJanuary": 3180,
      "bl": 3181,
      "oms": 3182,
      "ĠSaturday": 3183,
      "ĠFin": 3184,
      "Ġadvant": 3185,
      "Ġchurch": 3186,
      "Ġinsurance": 3187,
      "Ġreleased": 3188,
      "ened": 3189,
      "Ġdirectly": 3190,
      "ĠDirect": 3191,
      "After": 3192,
      "raig": 3193,
      "ĠBlack": 3194,
      "ĠAcc": 3195,
      "raft": 3196,
      "Ġslow": 3197,
      "Ġculture": 3198,
      "Ġeffort": 3199,
      "Ġshot": 3200,
      "ivity": 3201,
      "Ġhelps": 3202,
      "Ġthinking": 3203,
      "Ġlocated": 3204,
      "ivil": 3205,
      "ael": 3206,
      "ux": 3207,
      "olf": 3208,
      "ĠRed": 3209,
      "lim": 3210,
      "pre": 3211,
      "iles": 3212,
      "ĠPlease": 3213,
      "Ġpublished": 3214,
      "ĠOctober": 3215,
      "uk": 3216,
      "ĠDem": 3217,
      "Ġplant": 3218,
      "Ġhimself": 3219,
      "Ġglass": 3220,
      "ĠSeptember": 3221,
      "aries": 3222,
      "Ġcopy": 3223,
      "Ġgiving": 3224,
      "ĠFrom": 3225,
      "Ġsche": 3226,
      "Ġinstit": 3227,
      "Ġwrite": 3228,
      "No": 3229,
      "cious": 3230,
      "Ġfeed": 3231,
      "Ġconsidered": 3232,
      "Ġrace": 3233,
      "Ġremov": 3234,
      "Ġbra": 3235,
      "Ġweight": 3236,
      "Ġtried": 3237,
      "Ġideas": 3238,
      "Ġpositive": 3239,
      "Ġregist": 3240,
      "ĠEnglish": 3241,
      "Ġanswer": 3242,
      "opping": 3243,
      "Ġmag": 3244,
      "ĠOf": 3245,
      "aged": 3246,
      "ondon": 3247,
      "Ġsource": 3248,
      "Ġbehav": 3249,
      "Ġprevent": 3250,
      "Ġarch": 3251,
      "estern": 3252,
      "ĠCommun": 3253,
      "ky": 3254,
      "inc": 3255,
      "Ġwood": 3256,
      "Ġdepart": 3257,
      "Ġcapital": 3258,
      "Ġeye": 3259,
      "Ġlack": 3260,
      "ĠJe": 3261,
      "Ġdifference": 3262,
      "ĠMus": 3263,
      "itely": 3264,
      "Ġenter": 3265,
      "Ġorganiz": 3266,
      "Ġplaces": 3267,
      "Ġcode": 3268,
      "Ġconcept": 3269,
      "rows": 3270,
      "Ġdrink": 3271,
      "inger": 3272,
      "Ġoffe": 3273,
      "omen": 3274,
      "Ġshoot": 3275,
      "tee": 3276,
      "ET": 3277,
      "ĠBu": 3278,
      "Ġphysical": 3279,
      "Ġparents": 3280,
      "BC": 3281,
      "rast": 3282,
      "isions": 3283,
      "Ġbud": 3284,
      "Ġclub": 3285,
      "Ġtypes": 3286,
      "Ġcirc": 3287,
      "Ġphotos": 3288,
      "Ġmultiple": 3289,
      "Ġbank": 3290,
      "oming": 3291,
      "roup": 3292,
      "ocr": 3293,
      "Ġdeveloped": 3294,
      "Ġinterview": 3295,
      "Ġtowards": 3296,
      "ilies": 3297,
      "mas": 3298,
      "Ġstreng": 3299,
      "Ġspot": 3300,
      "Ġtrip": 3301,
      "Ġbroad": 3302,
      "Ġbrought": 3303,
      "Ġmobile": 3304,
      "Ġhop": 3305,
      "add": 3306,
      "uesday": 3307,
      "Ġinnov": 3308,
      "yond": 3309,
      "olute": 3310,
      "âĢĿ.": 3311,
      "aches": 3312,
      "ĠRead": 3313,
      "ĠIndian": 3314,
      "Ġsituation": 3315,
      "Ġdream": 3316,
      "Ġreve": 3317,
      "ĠMonday": 3318,
      "ĠNovember": 3319,
      "ulations": 3320,
      "):": 3321,
      "irth": 3322,
      "EL": 3323,
      "zz": 3324,
      "ĠSim": 3325,
      "ĠAc": 3326,
      "Ġvot": 3327,
      "Ġspent": 3328,
      "Ġproviding": 3329,
      "Ġorganization": 3330,
      "Ġtalking": 3331,
      "more": 3332,
      "mission": 3333,
      "Ġreach": 3334,
      "venue": 3335,
      "Ġfeeling": 3336,
      "ĠCons": 3337,
      "Ġindepend": 3338,
      "sec": 3339,
      "ĠFirst": 3340,
      "Ġcollection": 3341,
      "Ġequipment": 3342,
      "Ġwait": 3343,
      "vest": 3344,
      "Ġsun": 3345,
      "cember": 3346,
      "erved": 3347,
      "Ġcondition": 3348,
      "Ġwarm": 3349,
      "Ġmat": 3350,
      "Ġsection": 3351,
      "Ġextreme": 3352,
      "aker": 3353,
      "Ġavoid": 3354,
      "vin": 3355,
      "Ġhour": 3356,
      "Ġthous": 3357,
      "Ġconvers": 3358,
      "Ġsust": 3359,
      "arily": 3360,
      "Ġrev": 3361,
      "Ġlocation": 3362,
      "ography": 3363,
      "wise": 3364,
      "ĠAre": 3365,
      "itter": 3366,
      "ĠEvery": 3367,
      "Ġcoffee": 3368,
      "body": 3369,
      "mark": 3370,
      "Ġwrote": 3371,
      "isf": 3372,
      "Ġincome": 3373,
      "ĠRepublic": 3374,
      "Ġexactly": 3375,
      "Ġfederal": 3376,
      "Ġaltern": 3377,
      "ĠInternational": 3378,
      "Ġsen": 3379,
      "Ġprices": 3380,
      "uel": 3381,
      "Ġdep": 3382,
      "ibly": 3383,
      "Ġeconomic": 3384,
      "Ġtitle": 3385,
      "Ġter": 3386,
      "Ġcomplex": 3387,
      "rs": 3388,
      "Ġimages": 3389,
      "Ġscore": 3390,
      "Ġachieve": 3391,
      "Ġsites": 3392,
      "ĠFacebook": 3393,
      "Ġeat": 3394,
      "urt": 3395,
      "Ġrestaur": 3396,
      "Ġemployees": 3397,
      "ursday": 3398,
      "AP": 3399,
      "Ġwife": 3400,
      "imately": 3401,
      "oday": 3402,
      "Ġdevices": 3403,
      "mat": 3404,
      "Ġscience": 3405,
      "Ġcert": 3406,
      "ĠEven": 3407,
      "Ġfinally": 3408,
      "Ġnearly": 3409,
      "nds": 3410,
      "Ġfarm": 3411,
      "Ġgoals": 3412,
      "Ġcollege": 3413,
      "example": 3414,
      "Ġpaid": 3415,
      "Ġlanguage": 3416,
      "Ġmount": 3417,
      "ĠPal": 3418,
      "Ġfell": 3419,
      "rench": 3420,
      "Ġcorrect": 3421,
      "Ġdemand": 3422,
      "inner": 3423,
      "Ġobject": 3424,
      "Ġcas": 3425,
      "Ġdry": 3426,
      "uted": 3427,
      "Ġparticularly": 3428,
      "ĠPM": 3429,
      "Ġadult": 3430,
      "Ġcarry": 3431,
      "Ġserve": 3432,
      "band": 3433,
      "Ġheat": 3434,
      "Ġinterested": 3435,
      "ength": 3436,
      "Ġannounced": 3437,
      "Ġmoving": 3438,
      "ĠFlor": 3439,
      "ĠPost": 3440,
      "Ġuses": 3441,
      "Ġspirit": 3442,
      "Ġdisease": 3443,
      "Ġded": 3444,
      "Ġsleep": 3445,
      "Ex": 3446,
      "Ġson": 3447,
      "ĠWind": 3448,
      "Ġmaybe": 3449,
      "Ġinvestment": 3450,
      "Ġgrowing": 3451,
      "ĠTHE": 3452,
      "Ġtick": 3453,
      "ĠBrit": 3454,
      "ĠLaw": 3455,
      "izes": 3456,
      "Ġhttp": 3457,
      "Ġinflu": 3458,
      "ND": 3459,
      "Ġcorpor": 3460,
      "Ġrespond": 3461,
      "Ġchanged": 3462,
      "Ġfather": 3463,
      "Ġdire": 3464,
      "Ġshown": 3465,
      "ĠJapan": 3466,
      "Ġreports": 3467,
      "itchen": 3468,
      "mp": 3469,
      "ruary": 3470,
      "Ġbusinesses": 3471,
      "Ġsuccessful": 3472,
      "ĠÂ£": 3473,
      "Ġmessage": 3474,
      "ares": 3475,
      "Ġwild": 3476,
      "Ġfan": 3477,
      "ĠDel": 3478,
      "Ġturned": 3479,
      "She": 3480,
      "ĠMor": 3481,
      "Ġimag": 3482,
      "Ġtraditional": 3483,
      "Com": 3484,
      "OP": 3485,
      "ios": 3486,
      "anch": 3487,
      "Ġmis": 3488,
      "Ġneigh": 3489,
      "ĠStreet": 3490,
      "Ġapart": 3491,
      "see": 3492,
      "Ġstories": 3493,
      "sequ": 3494,
      "Ġproced": 3495,
      "Ġstraight": 3496,
      "Ġbeg": 3497,
      "ĠRom": 3498,
      "Ġfloor": 3499,
      "Ġsubst": 3500,
      "Ġmiles": 3501,
      "ST": 3502,
      "ĠTex": 3503,
      "Ġaccom": 3504,
      "Ġemot": 3505,
      "Ġwants": 3506,
      "down": 3507,
      "Ġdistrib": 3508,
      "ĠAssociation": 3509,
      "ION": 3510,
      "Ġstage": 3511,
      "ĠMost": 3512,
      "ĠKing": 3513,
      "Ġnumbers": 3514,
      "AD": 3515,
      "house": 3516,
      "zy": 3517,
      "Ġwish": 3518,
      "Ġfem": 3519,
      "Ġfix": 3520,
      "amb": 3521,
      "Ġoccur": 3522,
      "atever": 3523,
      "ĠGener": 3524,
      "Ġoverall": 3525,
      "ĠCollege": 3526,
      "Ġapplications": 3527,
      "Ġpromot": 3528,
      "ads": 3529,
      "ĠLondon": 3530,
      "Ġfully": 3531,
      "ĠService": 3532,
      "Ġten": 3533,
      "Ġforce": 3534,
      "ĠAut": 3535,
      "Ġstructure": 3536,
      "Ġimpress": 3537,
      "Ġcertainly": 3538,
      "Ġbaby": 3539,
      "Ġpet": 3540,
      "ednes": 3541,
      "Ġincreasing": 3542,
      "Ġsort": 3543,
      "Ġprem": 3544,
      "Ġassess": 3545,
      "Ġserious": 3546,
      "Ġhistor": 3547,
      "mitted": 3548,
      "Ġbillion": 3549,
      "ounds": 3550,
      "Ġmeasure": 3551,
      "ken": 3552,
      "wide": 3553,
      "amm": 3554,
      "Ġkn": 3555,
      "ĠUp": 3556,
      "ĠProgram": 3557,
      "Ġindividuals": 3558,
      "Ġaward": 3559,
      "Ġrules": 3560,
      "Ġalone": 3561,
      "Ġmechan": 3562,
      "Ġspeed": 3563,
      "undred": 3564,
      "Ġpurpose": 3565,
      "ĠInternet": 3566,
      "Ġfrequ": 3567,
      "OL": 3568,
      "Ġing": 3569,
      "icated": 3570,
      "Ġult": 3571,
      "ashion": 3572,
      "Ġfans": 3573,
      "Ġopportunities": 3574,
      "arr": 3575,
      "Ġextend": 3576,
      "ags": 3577,
      "Ġsociety": 3578,
      "Ġvoice": 3579,
      "reed": 3580,
      "Ġdemon": 3581,
      "aint": 3582,
      "Ġremain": 3583,
      "ashington": 3584,
      "ĠJes": 3585,
      "Ġacqu": 3586,
      "Ġactivity": 3587,
      "rief": 3588,
      "ech": 3589,
      "Ġprefer": 3590,
      "Ġanalysis": 3591,
      "Ġnormal": 3592,
      "arden": 3593,
      "Ġbeginning": 3594,
      "ĠBusiness": 3595,
      "antly": 3596,
      "pects": 3597,
      "Ġfeet": 3598,
      "rences": 3599,
      "Ġplanning": 3600,
      "By": 3601,
      "ault": 3602,
      "Ġbrain": 3603,
      "Ġregion": 3604,
      "Ġfamilies": 3605,
      "Ġdoub": 3606,
      "Ġhous": 3607,
      "ĠProf": 3608,
      "ĠUK": 3609,
      "ĠYear": 3610,
      "Ġcelebr": 3611,
      "Ġsuit": 3612,
      "ago": 3613,
      "ĠChina": 3614,
      "Ġteams": 3615,
      "Ġobtain": 3616,
      "ĠTechn": 3617,
      "De": 3618,
      "Ġreduce": 3619,
      "Ġcateg": 3620,
      "Ġseven": 3621,
      "ĠGoogle": 3622,
      "ĠOut": 3623,
      "Ġexcellent": 3624,
      "Ġslight": 3625,
      "Ġdirector": 3626,
      "Ġcomments": 3627,
      "ĠHall": 3628,
      "Ġrelig": 3629,
      "Ġstrugg": 3630,
      "Ġrates": 3631,
      "Ġsmart": 3632,
      "Ġprofession": 3633,
      "Ġeconomy": 3634,
      "ednesday": 3635,
      "Ġappl": 3636,
      "ancing": 3637,
      "Ġjobs": 3638,
      "Ð¾": 3639,
      "Ġmer": 3640,
      "Ġadvert": 3641,
      "Ġroll": 3642,
      "Ġblue": 3643,
      "Ġcharge": 3644,
      "Ġdeliver": 3645,
      "ibrary": 3646,
      "Ġdefinitely": 3647,
      "Ġdress": 3648,
      "ĠâĢ¦": 3649,
      "Ġperhaps": 3650,
      "Ġowners": 3651,
      "Ġearlier": 3652,
      "Ġstatement": 3653,
      "Ġannual": 3654,
      "Ġdelivery": 3655,
      "Ġver": 3656,
      "nded": 3657,
      "Ġfra": 3658,
      "arant": 3659,
      "ords": 3660,
      "Ġpattern": 3661,
      "Ġrequirements": 3662,
      "Ġeight": 3663,
      "Ġappropri": 3664,
      "Ġsolution": 3665,
      "Ġunderstanding": 3666,
      "Ġcry": 3667,
      "Ġund": 3668,
      "order": 3669,
      "IG": 3670,
      "Ġaim": 3671,
      "Ġmiddle": 3672,
      "ĠDecember": 3673,
      "Ġtools": 3674,
      "inated": 3675,
      "ĠAir": 3676,
      "Ġhealthy": 3677,
      "Now": 3678,
      "ĠTuesday": 3679,
      "change": 3680,
      "Ġtrade": 3681,
      "Ġprevious": 3682,
      "Craig": 3683,
      "ĠOther": 3684,
      "ously": 3685,
      "Ġtrain": 3686,
      "Ġcommercial": 3687,
      "icks": 3688,
      "well": 3689,
      "Ġcash": 3690,
      "itute": 3691,
      "Ġfear": 3692,
      "Ġthreat": 3693,
      "Ġgone": 3694,
      "Ġstress": 3695,
      "ĠEar": 3696,
      "Ġfinished": 3697,
      "Ġbasic": 3698,
      "vant": 3699,
      "hest": 3700,
      "Ġwww": 3701,
      "Ġinform": 3702,
      "oos": 3703,
      "aces": 3704,
      "Ġclin": 3705,
      "Ġresponsible": 3706,
      "umn": 3707,
      "ĠAlso": 3708,
      "aughter": 3709,
      "aled": 3710,
      "ĠFree": 3711,
      "Ġwhose": 3712,
      "ĠAss": 3713,
      "ĠCanada": 3714,
      "ying": 3715,
      "iling": 3716,
      "olic": 3717,
      "Ġcreating": 3718,
      "Ġpoor": 3719,
      "Ġbenefit": 3720,
      "ager": 3721,
      "Ġenh": 3722,
      "Ġrock": 3723,
      "sych": 3724,
      "dom": 3725,
      "het": 3726,
      "lying": 3727,
      "ĠCoun": 3728,
      "ĠGerm": 3729,
      "Ġloved": 3730,
      "ĠChristian": 3731,
      "force": 3732,
      "Ġhappened": 3733,
      "Un": 3734,
      "asc": 3735,
      "Ġcouldn": 3736,
      "Ġgreater": 3737,
      "Ġmovement": 3738,
      "Ġabsolute": 3739,
      "Ġdegree": 3740,
      "ĠCourt": 3741,
      "Ġoffered": 3742,
      "arc": 3743,
      "Ġrank": 3744,
      "duc": 3745,
      "Ġexpert": 3746,
      "Ġsolutions": 3747,
      "Ġincreased": 3748,
      "ronic": 3749,
      "Ġer": 3750,
      "Ġble": 3751,
      "Ġstar": 3752,
      "ategy": 3753,
      "Ġalthough": 3754,
      "Ġallowed": 3755,
      "lin": 3756,
      "itar": 3757,
      "Ġdoctor": 3758,
      "Ġguy": 3759,
      "ĠIndia": 3760,
      "ica": 3761,
      "ĠGreen": 3762,
      "ologies": 3763,
      "Ġgrand": 3764,
      "Ġexerc": 3765,
      "ĠJack": 3766,
      "Ġanaly": 3767,
      "Ġwel": 3768,
      "Ġlargest": 3769,
      "Ġschools": 3770,
      "Ġmeaning": 3771,
      "reci": 3772,
      "Ġpow": 3773,
      "ico": 3774,
      "ĠIN": 3775,
      "unte": 3776,
      "soft": 3777,
      "Ġhelped": 3778,
      "ĠWhite": 3779,
      "Ġsurface": 3780,
      "Ġstrateg": 3781,
      "bon": 3782,
      "ĠII": 3783,
      "Ġbeyond": 3784,
      "Ġconsult": 3785,
      "AA": 3786,
      "care": 3787,
      "Ġhaven": 3788,
      "Here": 3789,
      "Ġoffering": 3790,
      "ĠAnge": 3791,
      "Ġtemper": 3792,
      "Ġgirls": 3793,
      "Ġsatisf": 3794,
      "ties": 3795,
      "orage": 3796,
      "ulate": 3797,
      "Ġchem": 3798,
      "cuit": 3799,
      "Ġhotel": 3800,
      "Ġexisting": 3801,
      "Ġhundred": 3802,
      "ĠGold": 3803,
      "ampions": 3804,
      "Ġmoved": 3805,
      "term": 3806,
      "ĠWashington": 3807,
      "Ġchallenge": 3808,
      "Ġiniti": 3809,
      "Ġassociated": 3810,
      "ĠMicro": 3811,
      "Ġpopulation": 3812,
      "unk": 3813,
      "atively": 3814,
      "Ġahead": 3815,
      "Ġscient": 3816,
      "ĠBel": 3817,
      "Ġclient": 3818,
      "iber": 3819,
      "Ġfinish": 3820,
      "Ġvehicle": 3821,
      "ĠFlorida": 3822,
      "itude": 3823,
      "aling": 3824,
      "ĠScience": 3825,
      "ĠThom": 3826,
      "ervation": 3827,
      "Ġproduce": 3828,
      "Ġleader": 3829,
      "ĠServices": 3830,
      "bed": 3831,
      "vis": 3832,
      "Ġ*": 3833,
      "Ġfat": 3834,
      "Ġactive": 3835,
      "New": 3836,
      "Ġmax": 3837,
      "Ġcandid": 3838,
      "Ġadvantage": 3839,
      "Ġband": 3840,
      "Ġlik": 3841,
      "Ġinstru": 3842,
      "ĠDevelop": 3843,
      "Ġimmediately": 3844,
      "ford": 3845,
      "oly": 3846,
      "orrow": 3847,
      "ĠHome": 3848,
      "rial": 3849,
      "Ġdoll": 3850,
      "etic": 3851,
      "Ġfollowed": 3852,
      "Ġgenerally": 3853,
      "ĠDavid": 3854,
      "Pro": 3855,
      "range": 3856,
      "Ġnamed": 3857,
      "ooth": 3858,
      "Ġonto": 3859,
      "ĠLet": 3860,
      "Ġsurround": 3861,
      "cause": 3862,
      "iant": 3863,
      "ĠPort": 3864,
      "ĠGroup": 3865,
      "Ġmilitary": 3866,
      "isl": 3867,
      "Ġbur": 3868,
      "apers": 3869,
      "Ġcamera": 3870,
      "ĠGreat": 3871,
      "coming": 3872,
      "ĠTrans": 3873,
      "ĠTexas": 3874,
      "itiz": 3875,
      "ĠEast": 3876,
      "Ġexpand": 3877,
      "ĠSuper": 3878,
      "Ġlines": 3879,
      "Ġreasons": 3880,
      "Ġframe": 3881,
      "Ġsweet": 3882,
      "\".": 3883,
      "itors": 3884,
      "ĠThursday": 3885,
      "ecutive": 3886,
      "Ġwat": 3887,
      "Ġcompleted": 3888,
      "Ġopening": 3889,
      "PS": 3890,
      "iable": 3891,
      "iment": 3892,
      "istry": 3893,
      "Ġcompared": 3894,
      "Ġquarter": 3895,
      "Ġmonitor": 3896,
      "ĠCle": 3897,
      "ĠRec": 3898,
      "Ġefforts": 3899,
      "Ġsale": 3900,
      "Ġbill": 3901,
      "ston": 3902,
      "ĠIS": 3903,
      "osure": 3904,
      "Ġsurv": 3905,
      "Ġmill": 3906,
      "Ġmaster": 3907,
      "Ġmodels": 3908,
      "ĠChristmas": 3909,
      "Ġsustain": 3910,
      "rig": 3911,
      "unction": 3912,
      "Ġwouldn": 3913,
      "Ġtrou": 3914,
      "Ġcontain": 3915,
      "Ġguys": 3916,
      "ĠPlay": 3917,
      "Ġpages": 3918,
      "set": 3919,
      "Ġkitchen": 3920,
      "Ġcolle": 3921,
      "Ġattract": 3922,
      "Ġconstruction": 3923,
      "ading": 3924,
      "Ġbasis": 3925,
      "Ġfigure": 3926,
      "Ġgar": 3927,
      "Ġaren": 3928,
      "ĠFound": 3929,
      "Ġcancer": 3930,
      "Ġletter": 3931,
      "Ġanimals": 3932,
      "Ġbreat": 3933,
      "ĠBook": 3934,
      "While": 3935,
      "ĠHel": 3936,
      "Ġdamage": 3937,
      "ĠPaul": 3938,
      "ym": 3939,
      "ado": 3940,
      "ĠMod": 3941,
      "Ġdisapp": 3942,
      "Ġwine": 3943,
      "Ġresist": 3944,
      "Ġguide": 3945,
      "ifying": 3946,
      "bum": 3947,
      "ani": 3948,
      "iced": 3949,
      "ĠSch": 3950,
      "que": 3951,
      "osing": 3952,
      "text": 3953,
      "useum": 3954,
      "Ġpicture": 3955,
      "rim": 3956,
      "Ġdang": 3957,
      "ĠMet": 3958,
      "ĠBra": 3959,
      "Ġjoin": 3960,
      "ĠMichael": 3961,
      "ĠFebruary": 3962,
      "Ġbirth": 3963,
      "icip": 3964,
      "Ġreplace": 3965,
      "ĠJesus": 3966,
      "inate": 3967,
      "ĠEv": 3968,
      "Ġmeant": 3969,
      "Ġlots": 3970,
      "Ġradio": 3971,
      "Ġdecl": 3972,
      "Ġphoto": 3973,
      "ĠDesign": 3974,
      "Ġfaith": 3975,
      "ĠOffice": 3976,
      "Ġcold": 3977,
      "owl": 3978,
      "Ġsetting": 3979,
      "Ġliter": 3980,
      "Ġsand": 3981,
      "asy": 3982,
      "amic": 3983,
      "istics": 3984,
      "error": 3985,
      "ny": 3986,
      "encies": 3987,
      "Ġvictim": 3988,
      "Ġtoward": 3989,
      "icine": 3990,
      "ĠFrench": 3991,
      "ĠOF": 3992,
      "ube": 3993,
      "Ġcentral": 3994,
      "Is": 3995,
      "vision": 3996,
      "Ġfish": 3997,
      "place": 3998,
      "Ġflav": 3999,
      "ĠAny": 4000,
      "Ġpowerful": 4001,
      "Ġmanager": 4002,
      "LE": 4003,
      "using": 4004,
      "akers": 4005,
      "Ġserved": 4006,
      "Ġcontinued": 4007,
      "ĠEuropean": 4008,
      "edding": 4009,
      "Ġmachine": 4010,
      "Ġappreci": 4011,
      "Ġstudies": 4012,
      "TH": 4013,
      "rant": 4014,
      "ĠGood": 4015,
      "Ġevidence": 4016,
      "Ġobv": 4017,
      "ĠApple": 4018,
      "Ġopin": 4019,
      "Ġpartner": 4020,
      "Ġhelping": 4021,
      "Ġorganizations": 4022,
      "Ġcore": 4023,
      "ĠAM": 4024,
      "ĠAnt": 4025,
      "Please": 4026,
      "ĠBig": 4027,
      "Ġoccas": 4028,
      "Ġhospital": 4029,
      "state": 4030,
      "ĠMac": 4031,
      "osis": 4032,
      "Ġkept": 4033,
      "Ġcalls": 4034,
      "Ġeasier": 4035,
      "Ġsteps": 4036,
      "Ġshop": 4037,
      "Ġserver": 4038,
      "Ġlaws": 4039,
      "Ġpatient": 4040,
      "Ġbudget": 4041,
      "DA": 4042,
      "Se": 4043,
      "Ġpal": 4044,
      "Ġaccur": 4045,
      "Ġdeveloping": 4046,
      "Ġtruly": 4047,
      "ĠHot": 4048,
      "Ġtransfer": 4049,
      "Ġbottom": 4050,
      "ĠAv": 4051,
      "ĠJames": 4052,
      "Ġafford": 4053,
      "but": 4054,
      "know": 4055,
      "Ġden": 4056,
      "entially": 4057,
      "ooper": 4058,
      "Ġspread": 4059,
      "Ġearth": 4060,
      "Ġconnection": 4061,
      "opped": 4062,
      "inally": 4063,
      "Ġtruth": 4064,
      "overed": 4065,
      "Ġprotection": 4066,
      "ĠBrown": 4067,
      "aded": 4068,
      "ĠDist": 4069,
      "Ġcompon": 4070,
      "anging": 4071,
      "Ġstatus": 4072,
      "vention": 4073,
      "iny": 4074,
      "ota": 4075,
      "Ġconference": 4076,
      "Ġsuff": 4077,
      "ĠOver": 4078,
      "Ġhttps": 4079,
      "Ġcast": 4080,
      "Ġplaced": 4081,
      "ĠAustralia": 4082,
      "Some": 4083,
      "ĠMany": 4084,
      "antic": 4085,
      "Ġadvice": 4086,
      "Ġolder": 4087,
      "Ġchallenges": 4088,
      "Ðµ": 4089,
      "Ġdouble": 4090,
      "?\"": 4091,
      "Not": 4092,
      "ancy": 4093,
      "vere": 4094,
      "Ġgas": 4095
    },
    "merges": [
      [
        "Ġ",
        "t"
      ],
      [
        "Ġ",
        "a"
      ],
      [
        "h",
        "e"
      ],
      [
        "i",
        "n"
      ],
      [
        "r",
        "e"
      ],
      [
        "o",
        "n"
      ],
      [
        "Ġt",
        "he"
      ],
      [
        "e",
        "r"
      ],
      [
        "Ġ",
        "s"
      ],
      [
        "Ġ",
        "w"
      ],
      [
        "a",
        "t"
      ],
      [
        "Ġ",
        "o"
      ],
      [
        "n",
        "d"
      ],
      [
        "Ġ",
        "c"
      ],
      [
        "i",
        "t"
      ],
      [
        "o",
        "r"
      ],
      [
        "e",
        "s"
      ],
      [
        "i",
        "s"
      ],
      [
        "e",
        "n"
      ],
      [
        "o",
        "u"
      ],
      [
        "Ġ",
        "f"
      ],
      [
        "Ġ",
        "b"
      ],
      [
        "in",
        "g"
      ],
      [
        "Ġ",
        "p"
      ],
      [
        "e",
        "d"
      ],
      [
        "a",
        "n"
      ],
      [
        "a",
        "l"
      ],
      [
        "Ġt",
        "o"
      ],
      [
        "Ġ",
        "m"
      ],
      [
        "a",
        "r"
      ],
      [
        "Ġa",
        "nd"
      ],
      [
        "Ġo",
        "f"
      ],
      [
        "Ġ",
        "in"
      ],
      [
        "Ġ",
        "d"
      ],
      [
        "i",
        "c"
      ],
      [
        "Ġ",
        "h"
      ],
      [
        "l",
        "e"
      ],
      [
        "a",
        "s"
      ],
      [
        "o",
        "m"
      ],
      [
        "i",
        "on"
      ],
      [
        "Ġt",
        "h"
      ],
      [
        "l",
        "l"
      ],
      [
        "â",
        "Ģ"
      ],
      [
        "Ġ",
        "l"
      ],
      [
        "en",
        "t"
      ],
      [
        "v",
        "e"
      ],
      [
        "Ġ",
        "e"
      ],
      [
        "s",
        "t"
      ],
      [
        "Ġ",
        "re"
      ],
      [
        "Ġ",
        "n"
      ],
      [
        "r",
        "o"
      ],
      [
        "Ġ",
        "y"
      ],
      [
        "Ġ",
        "g"
      ],
      [
        "l",
        "y"
      ],
      [
        "Ġ",
        "I"
      ],
      [
        "c",
        "t"
      ],
      [
        "Ġb",
        "e"
      ],
      [
        "Ġ",
        "T"
      ],
      [
        "u",
        "t"
      ],
      [
        "Ġ",
        "is"
      ],
      [
        "e",
        "t"
      ],
      [
        "o",
        "t"
      ],
      [
        "i",
        "d"
      ],
      [
        "Ġy",
        "ou"
      ],
      [
        "Ġ",
        "S"
      ],
      [
        "Ġf",
        "or"
      ],
      [
        "a",
        "y"
      ],
      [
        "Ġ",
        "on"
      ],
      [
        "o",
        "w"
      ],
      [
        "u",
        "r"
      ],
      [
        "Ġ",
        "A"
      ],
      [
        "s",
        "e"
      ],
      [
        "i",
        "m"
      ],
      [
        "Ġ",
        "C"
      ],
      [
        "a",
        "d"
      ],
      [
        "c",
        "e"
      ],
      [
        "i",
        "g"
      ],
      [
        "a",
        "m"
      ],
      [
        "Ġ",
        "u"
      ],
      [
        "Ġth",
        "at"
      ],
      [
        "v",
        "er"
      ],
      [
        "c",
        "h"
      ],
      [
        "i",
        "l"
      ],
      [
        "at",
        "ion"
      ],
      [
        "it",
        "h"
      ],
      [
        "Ġs",
        "t"
      ],
      [
        "o",
        "l"
      ],
      [
        "i",
        "r"
      ],
      [
        "Ġw",
        "ith"
      ],
      [
        "âĢ",
        "Ļ"
      ],
      [
        "Ġ",
        "he"
      ],
      [
        "Ġ",
        "it"
      ],
      [
        "Ġ",
        "M"
      ],
      [
        "r",
        "a"
      ],
      [
        "Ġw",
        "e"
      ],
      [
        "Ġa",
        "n"
      ],
      [
        "Ġa",
        "s"
      ],
      [
        "Ġ",
        "B"
      ],
      [
        "Ġw",
        "h"
      ],
      [
        "er",
        "s"
      ],
      [
        "Ġ",
        "P"
      ],
      [
        "i",
        "ll"
      ],
      [
        "i",
        "f"
      ],
      [
        "Ġp",
        "ro"
      ],
      [
        "k",
        "e"
      ],
      [
        "Ġa",
        "re"
      ],
      [
        "Ġh",
        "a"
      ],
      [
        "t",
        "er"
      ],
      [
        "g",
        "e"
      ],
      [
        "Ġc",
        "on"
      ],
      [
        "l",
        "d"
      ],
      [
        "Ġ",
        "W"
      ],
      [
        "o",
        "o"
      ],
      [
        "Ġo",
        "r"
      ],
      [
        "at",
        "e"
      ],
      [
        "he",
        "r"
      ],
      [
        "u",
        "l"
      ],
      [
        "c",
        "k"
      ],
      [
        "Ġc",
        "om"
      ],
      [
        "es",
        "s"
      ],
      [
        "p",
        "p"
      ],
      [
        "Ġa",
        "t"
      ],
      [
        "Ġs",
        "e"
      ],
      [
        "Ġ",
        "H"
      ],
      [
        "o",
        "re"
      ],
      [
        "Ġ",
        "D"
      ],
      [
        "m",
        "ent"
      ],
      [
        "es",
        "t"
      ],
      [
        "ĠT",
        "he"
      ],
      [
        "Ġd",
        "e"
      ],
      [
        "r",
        "i"
      ],
      [
        "ig",
        "h"
      ],
      [
        "Ġ",
        "F"
      ],
      [
        "u",
        "s"
      ],
      [
        "Ġ",
        "R"
      ],
      [
        "Ġw",
        "as"
      ],
      [
        "t",
        "h"
      ],
      [
        "a",
        "b"
      ],
      [
        "r",
        "om"
      ],
      [
        "is",
        "t"
      ],
      [
        "Ġn",
        "e"
      ],
      [
        "Ġ",
        "("
      ],
      [
        "o",
        "p"
      ],
      [
        "u",
        "n"
      ],
      [
        "Ġe",
        "x"
      ],
      [
        "u",
        "re"
      ],
      [
        "it",
        "y"
      ],
      [
        "i",
        "ve"
      ],
      [
        "q",
        "u"
      ],
      [
        "an",
        "t"
      ],
      [
        "Ġ",
        "r"
      ],
      [
        "Ġ",
        "v"
      ],
      [
        "Ġha",
        "ve"
      ],
      [
        "p",
        "e"
      ],
      [
        "e",
        "m"
      ],
      [
        "Ġ",
        "L"
      ],
      [
        "Ġ",
        "âĢ"
      ],
      [
        "Ġ",
        "N"
      ],
      [
        "u",
        "m"
      ],
      [
        "ar",
        "t"
      ],
      [
        "u",
        "st"
      ],
      [
        "or",
        "t"
      ],
      [
        "a",
        "in"
      ],
      [
        "Ġth",
        "is"
      ],
      [
        "Ġn",
        "ot"
      ],
      [
        "Ġs",
        "h"
      ],
      [
        "Ġf",
        "rom"
      ],
      [
        "Ġyou",
        "r"
      ],
      [
        "n",
        "t"
      ],
      [
        "Ġ",
        "G"
      ],
      [
        "Ġ",
        "E"
      ],
      [
        "o",
        "s"
      ],
      [
        "i",
        "es"
      ],
      [
        "Ġb",
        "y"
      ],
      [
        "igh",
        "t"
      ],
      [
        "e",
        "l"
      ],
      [
        "Ġa",
        "l"
      ],
      [
        "a",
        "nd"
      ],
      [
        "Ġc",
        "h"
      ],
      [
        "Ġc",
        "an"
      ],
      [
        "Ġs",
        "u"
      ],
      [
        "al",
        "l"
      ],
      [
        "Ġ",
        "le"
      ],
      [
        "om",
        "e"
      ],
      [
        "re",
        "s"
      ],
      [
        "ou",
        "t"
      ],
      [
        "ar",
        "d"
      ],
      [
        "i",
        "e"
      ],
      [
        "Ġw",
        "ill"
      ],
      [
        "ou",
        "ld"
      ],
      [
        "Ġ",
        "O"
      ],
      [
        "Ġa",
        "b"
      ],
      [
        "Ġd",
        "o"
      ],
      [
        "ou",
        "r"
      ],
      [
        "al",
        "ly"
      ],
      [
        "u",
        "d"
      ],
      [
        "o",
        "st"
      ],
      [
        "t",
        "e"
      ],
      [
        "g",
        "h"
      ],
      [
        "Ġw",
        "or"
      ],
      [
        "i",
        "v"
      ],
      [
        "Ġp",
        "l"
      ],
      [
        "'",
        "s"
      ],
      [
        "as",
        "t"
      ],
      [
        "r",
        "ou"
      ],
      [
        "Ġa",
        "ll"
      ],
      [
        "o",
        "d"
      ],
      [
        "c",
        "i"
      ],
      [
        "re",
        "d"
      ],
      [
        "Ġ",
        "j"
      ],
      [
        "e",
        "ar"
      ],
      [
        "T",
        "he"
      ],
      [
        "id",
        "e"
      ],
      [
        "a",
        "k"
      ],
      [
        "Ġ",
        "J"
      ],
      [
        "Ġ",
        "k"
      ],
      [
        "a",
        "g"
      ],
      [
        "in",
        "e"
      ],
      [
        "f",
        "e"
      ],
      [
        "Ġs",
        "o"
      ],
      [
        "p",
        "t"
      ],
      [
        "Ġh",
        "as"
      ],
      [
        "Ġm",
        "e"
      ],
      [
        "ic",
        "e"
      ],
      [
        "âĢ",
        "Ŀ"
      ],
      [
        "p",
        "er"
      ],
      [
        "Ġb",
        "ut"
      ],
      [
        "Ġw",
        "he"
      ],
      [
        "a",
        "ck"
      ],
      [
        "Ġu",
        "s"
      ],
      [
        "Ġcom",
        "p"
      ],
      [
        "a",
        "ge"
      ],
      [
        "ct",
        "ion"
      ],
      [
        "t",
        "her"
      ],
      [
        "Ġa",
        "d"
      ],
      [
        "Ġo",
        "ut"
      ],
      [
        "a",
        "c"
      ],
      [
        "Ġu",
        "p"
      ],
      [
        "ic",
        "h"
      ],
      [
        "oo",
        "k"
      ],
      [
        "Ġthe",
        "y"
      ],
      [
        "on",
        "e"
      ],
      [
        "a",
        "ke"
      ],
      [
        "a",
        "re"
      ],
      [
        "o",
        "g"
      ],
      [
        "Ġm",
        "ore"
      ],
      [
        "Ġ",
        "U"
      ],
      [
        "in",
        "d"
      ],
      [
        "Ġ",
        "en"
      ],
      [
        "s",
        "o"
      ],
      [
        "r",
        "y"
      ],
      [
        "at",
        "ed"
      ],
      [
        "im",
        "e"
      ],
      [
        "Ġthe",
        "ir"
      ],
      [
        "ver",
        "y"
      ],
      [
        "Ġm",
        "y"
      ],
      [
        "p",
        "l"
      ],
      [
        "on",
        "g"
      ],
      [
        "c",
        "c"
      ],
      [
        "Ġt",
        "e"
      ],
      [
        "Ġh",
        "is"
      ],
      [
        "oo",
        "d"
      ],
      [
        "ab",
        "le"
      ],
      [
        "ou",
        "s"
      ],
      [
        "an",
        "s"
      ],
      [
        "it",
        "e"
      ],
      [
        "Ġc",
        "l"
      ],
      [
        "Ġs",
        "a"
      ],
      [
        "am",
        "e"
      ],
      [
        "Ġon",
        "e"
      ],
      [
        "i",
        "z"
      ],
      [
        "i",
        "ke"
      ],
      [
        "Ġab",
        "out"
      ],
      [
        "ĠT",
        "h"
      ],
      [
        "ĠâĢ",
        "ľ"
      ],
      [
        "i",
        "p"
      ],
      [
        "Ġwh",
        "o"
      ],
      [
        "or",
        "m"
      ],
      [
        "Ġcon",
        "t"
      ],
      [
        "i",
        "b"
      ],
      [
        "Ġ",
        "im"
      ],
      [
        "Ġo",
        "ur"
      ],
      [
        "d",
        "u"
      ],
      [
        "Ġm",
        "an"
      ],
      [
        "ĠI",
        "n"
      ],
      [
        "Ġin",
        "c"
      ],
      [
        "Ġg",
        "o"
      ],
      [
        "r",
        "u"
      ],
      [
        "ion",
        "s"
      ],
      [
        "Ġf",
        "e"
      ],
      [
        "an",
        "ce"
      ],
      [
        "n",
        "e"
      ],
      [
        "t",
        "o"
      ],
      [
        "Ġwh",
        "ich"
      ],
      [
        "as",
        "e"
      ],
      [
        "Ġre",
        "s"
      ],
      [
        "ay",
        "s"
      ],
      [
        "a",
        "ct"
      ],
      [
        "a",
        "p"
      ],
      [
        "Ġp",
        "er"
      ],
      [
        "i",
        "re"
      ],
      [
        "Ġl",
        "o"
      ],
      [
        "Ġ",
        "Y"
      ],
      [
        "Ġwor",
        "k"
      ],
      [
        "Ġ",
        "K"
      ],
      [
        "ic",
        "k"
      ],
      [
        "b",
        "er"
      ],
      [
        "f",
        "f"
      ],
      [
        "a",
        "il"
      ],
      [
        "i",
        "a"
      ],
      [
        "Ġa",
        "pp"
      ],
      [
        "re",
        "e"
      ],
      [
        "Ġo",
        "ther"
      ],
      [
        "Ġof",
        "f"
      ],
      [
        "a",
        "ce"
      ],
      [
        "v",
        "en"
      ],
      [
        "ig",
        "n"
      ],
      [
        "ation",
        "s"
      ],
      [
        "ul",
        "t"
      ],
      [
        ".",
        "."
      ],
      [
        "u",
        "e"
      ],
      [
        "re",
        "at"
      ],
      [
        "Ġt",
        "ime"
      ],
      [
        "as",
        "s"
      ],
      [
        "ic",
        "al"
      ],
      [
        "a",
        "ch"
      ],
      [
        "a",
        "u"
      ],
      [
        "Ġy",
        "ear"
      ],
      [
        "Ġs",
        "ome"
      ],
      [
        "e",
        "p"
      ],
      [
        "ar",
        "y"
      ],
      [
        "Ġd",
        "is"
      ],
      [
        "Ġl",
        "ike"
      ],
      [
        "u",
        "b"
      ],
      [
        "ĠS",
        "t"
      ],
      [
        "Ġan",
        "y"
      ],
      [
        "i",
        "le"
      ],
      [
        "Ġ",
        "qu"
      ],
      [
        "n",
        "ow"
      ],
      [
        "Ġal",
        "so"
      ],
      [
        "ve",
        "l"
      ],
      [
        "ar",
        "k"
      ],
      [
        "Ġg",
        "et"
      ],
      [
        "Ġne",
        "w"
      ],
      [
        "ou",
        "nt"
      ],
      [
        "Ġhe",
        "r"
      ],
      [
        "Ġu",
        "n"
      ],
      [
        "Ġh",
        "ad"
      ],
      [
        "en",
        "ce"
      ],
      [
        "or",
        "d"
      ],
      [
        "Ġthe",
        "m"
      ],
      [
        "Ġbe",
        "en"
      ],
      [
        "Ġs",
        "p"
      ],
      [
        "ĠI",
        "t"
      ],
      [
        "f",
        "orm"
      ],
      [
        "Ġp",
        "art"
      ],
      [
        "er",
        "v"
      ],
      [
        "ing",
        "s"
      ],
      [
        "Ġwe",
        "re"
      ],
      [
        "Ġ",
        "\""
      ],
      [
        "Ġ",
        "V"
      ],
      [
        "Ġthe",
        "re"
      ],
      [
        "res",
        "s"
      ],
      [
        "Ġa",
        "g"
      ],
      [
        "Ġw",
        "ould"
      ],
      [
        "Ġp",
        "e"
      ],
      [
        "Ġwhe",
        "n"
      ],
      [
        "Ġ",
        "if"
      ],
      [
        "ou",
        "gh"
      ],
      [
        "Ġo",
        "ver"
      ],
      [
        "on",
        "d"
      ],
      [
        "it",
        "ion"
      ],
      [
        "ĠC",
        "h"
      ],
      [
        "a",
        "v"
      ],
      [
        "or",
        "s"
      ],
      [
        "in",
        "k"
      ],
      [
        "Ġa",
        "r"
      ],
      [
        "o",
        "se"
      ],
      [
        "ent",
        "s"
      ],
      [
        "Ġth",
        "an"
      ],
      [
        "Ġwh",
        "at"
      ],
      [
        "en",
        "s"
      ],
      [
        "i",
        "al"
      ],
      [
        "Ġt",
        "r"
      ],
      [
        "Ġj",
        "ust"
      ],
      [
        "Ġre",
        "c"
      ],
      [
        "ou",
        "nd"
      ],
      [
        "Ġs",
        "pe"
      ],
      [
        "Ġk",
        "now"
      ],
      [
        "Ġbe",
        "c"
      ],
      [
        "Ġ",
        "ro"
      ],
      [
        "Ġsa",
        "id"
      ],
      [
        "ir",
        "st"
      ],
      [
        "in",
        "t"
      ],
      [
        "il",
        "d"
      ],
      [
        "Ġin",
        "to"
      ],
      [
        "Ġc",
        "o"
      ],
      [
        "Ġp",
        "re"
      ],
      [
        "is",
        "h"
      ],
      [
        "ĠW",
        "e"
      ],
      [
        "Ġ",
        "-"
      ],
      [
        "m",
        "er"
      ],
      [
        "op",
        "le"
      ],
      [
        "w",
        "n"
      ],
      [
        "o",
        "b"
      ],
      [
        "Ġim",
        "p"
      ],
      [
        "nd",
        "er"
      ],
      [
        "ow",
        "n"
      ],
      [
        "Ġne",
        "ed"
      ],
      [
        "re",
        "n"
      ],
      [
        "Ġa",
        "m"
      ],
      [
        "Ġa",
        "cc"
      ],
      [
        "f",
        "ter"
      ],
      [
        "or",
        "y"
      ],
      [
        "rou",
        "gh"
      ],
      [
        "Ġs",
        "c"
      ],
      [
        "l",
        "ic"
      ],
      [
        "Ġh",
        "ow"
      ],
      [
        "Ġt",
        "w"
      ],
      [
        "ad",
        "e"
      ],
      [
        "ĠH",
        "e"
      ],
      [
        "Ġit",
        "s"
      ],
      [
        "at",
        "er"
      ],
      [
        "Ġs",
        "he"
      ],
      [
        "Ġm",
        "ay"
      ],
      [
        "Ġb",
        "l"
      ],
      [
        "ol",
        "d"
      ],
      [
        "Ġn",
        "o"
      ],
      [
        "it",
        "t"
      ],
      [
        "ver",
        "s"
      ],
      [
        "Ġpe",
        "ople"
      ],
      [
        "o",
        "y"
      ],
      [
        "an",
        "g"
      ],
      [
        "Ġd",
        "es"
      ],
      [
        "l",
        "ud"
      ],
      [
        "n",
        "ing"
      ],
      [
        "'",
        "t"
      ],
      [
        "Ġf",
        "irst"
      ],
      [
        "on",
        "s"
      ],
      [
        "w",
        "e"
      ],
      [
        "c",
        "es"
      ],
      [
        "Ġcom",
        "m"
      ],
      [
        "ĠâĢ",
        "ĵ"
      ],
      [
        "am",
        "p"
      ],
      [
        "he",
        "d"
      ],
      [
        "u",
        "al"
      ],
      [
        "au",
        "se"
      ],
      [
        "o",
        "c"
      ],
      [
        "ci",
        "al"
      ],
      [
        "f",
        "t"
      ],
      [
        "l",
        "es"
      ],
      [
        "at",
        "es"
      ],
      [
        "Ġon",
        "ly"
      ],
      [
        "Ġad",
        "d"
      ],
      [
        "l",
        "p"
      ],
      [
        "Ġt",
        "ra"
      ],
      [
        "o",
        "v"
      ],
      [
        "i",
        "an"
      ],
      [
        "r",
        "ic"
      ],
      [
        "u",
        "ll"
      ],
      [
        "Ġm",
        "ake"
      ],
      [
        "Ġl",
        "ook"
      ],
      [
        "Ġm",
        "ost"
      ],
      [
        "Ġf",
        "l"
      ],
      [
        "Ġe",
        "m"
      ],
      [
        "re",
        "nt"
      ],
      [
        "Ġp",
        "o"
      ],
      [
        "Ġinc",
        "lud"
      ],
      [
        "Ġb",
        "ack"
      ],
      [
        "Ġbe",
        "t"
      ],
      [
        "ter",
        "n"
      ],
      [
        "ment",
        "s"
      ],
      [
        "Ġhe",
        "lp"
      ],
      [
        "Ġin",
        "d"
      ],
      [
        "Ġu",
        "se"
      ],
      [
        "Ġpro",
        "v"
      ],
      [
        "Ġth",
        "rough"
      ],
      [
        "d",
        "ay"
      ],
      [
        "g",
        "r"
      ],
      [
        "rou",
        "nd"
      ],
      [
        "ĠTh",
        "is"
      ],
      [
        "e",
        "nd"
      ],
      [
        "Ġw",
        "ant"
      ],
      [
        "ct",
        "s"
      ],
      [
        "ĠR",
        "e"
      ],
      [
        "Ġtw",
        "o"
      ],
      [
        "i",
        "ly"
      ],
      [
        "Ġpro",
        "du"
      ],
      [
        "Ġse",
        "e"
      ],
      [
        "Ġe",
        "very"
      ],
      [
        "Ġwe",
        "ll"
      ],
      [
        "at",
        "ing"
      ],
      [
        "h",
        "ing"
      ],
      [
        "is",
        "s"
      ],
      [
        "Ġre",
        "p"
      ],
      [
        "o",
        "ve"
      ],
      [
        "Ġcon",
        "s"
      ],
      [
        "Ġthe",
        "se"
      ],
      [
        "i",
        "ous"
      ],
      [
        "is",
        "e"
      ],
      [
        "Ġu",
        "nder"
      ],
      [
        "e",
        "w"
      ],
      [
        "Ġa",
        "fter"
      ],
      [
        "x",
        "t"
      ],
      [
        "Ġb",
        "u"
      ],
      [
        "a",
        "w"
      ],
      [
        "it",
        "ies"
      ],
      [
        "Ġp",
        "h"
      ],
      [
        "k",
        "s"
      ],
      [
        "T",
        "h"
      ],
      [
        "j",
        "e"
      ],
      [
        "ie",
        "w"
      ],
      [
        "c",
        "ed"
      ],
      [
        "Ġpl",
        "ay"
      ],
      [
        "Ġc",
        "ould"
      ],
      [
        "p",
        "h"
      ],
      [
        "Ġa",
        "ct"
      ],
      [
        "f",
        "ore"
      ],
      [
        "ur",
        "n"
      ],
      [
        "o",
        "ll"
      ],
      [
        "if",
        "ic"
      ],
      [
        "if",
        "e"
      ],
      [
        ")",
        "."
      ],
      [
        "se",
        "l"
      ],
      [
        "pp",
        "ort"
      ],
      [
        "Ġs",
        "erv"
      ],
      [
        "Ġd",
        "if"
      ],
      [
        "Ġh",
        "im"
      ],
      [
        "er",
        "t"
      ],
      [
        "Ġin",
        "v"
      ],
      [
        "ro",
        "w"
      ],
      [
        "he",
        "n"
      ],
      [
        "Ġs",
        "y"
      ],
      [
        "Ġ",
        "very"
      ],
      [
        "al",
        "s"
      ],
      [
        "Ġre",
        "l"
      ],
      [
        "t",
        "ing"
      ],
      [
        "Ġ",
        "ra"
      ],
      [
        "Ġe",
        "ven"
      ],
      [
        "Ġp",
        "r"
      ],
      [
        "u",
        "ch"
      ],
      [
        "Ġn",
        "ow"
      ],
      [
        "Ġyear",
        "s"
      ],
      [
        "an",
        "ge"
      ],
      [
        "Ġman",
        "y"
      ],
      [
        "Ġg",
        "ood"
      ],
      [
        "ers",
        "on"
      ],
      [
        "Ġre",
        "g"
      ],
      [
        "ation",
        "al"
      ],
      [
        "on",
        "t"
      ],
      [
        "Ġthe",
        "n"
      ],
      [
        "Ġw",
        "ay"
      ],
      [
        "c",
        "ess"
      ],
      [
        "Ġe",
        "v"
      ],
      [
        "as",
        "ed"
      ],
      [
        "Ġsh",
        "ould"
      ],
      [
        "in",
        "ess"
      ],
      [
        "le",
        "ct"
      ],
      [
        "ol",
        "og"
      ],
      [
        ".",
        "âĢĿ"
      ],
      [
        "Ġc",
        "ol"
      ],
      [
        "Ġ",
        "ke"
      ],
      [
        "Ġwhe",
        "re"
      ],
      [
        "ak",
        "ing"
      ],
      [
        "Ġre",
        "m"
      ],
      [
        "os",
        "s"
      ],
      [
        "c",
        "om"
      ],
      [
        "ot",
        "h"
      ],
      [
        "Ġs",
        "m"
      ],
      [
        "ĠY",
        "ou"
      ],
      [
        "f",
        "fe"
      ],
      [
        "il",
        "ity"
      ],
      [
        "Ġde",
        "c"
      ],
      [
        "Ġr",
        "ight"
      ],
      [
        "b",
        "s"
      ],
      [
        "ure",
        "s"
      ],
      [
        "f",
        "ul"
      ],
      [
        "w",
        "ard"
      ],
      [
        "r",
        "it"
      ],
      [
        "Ġbec",
        "ause"
      ],
      [
        "Ġd",
        "on"
      ],
      [
        "Ġd",
        "id"
      ],
      [
        "ib",
        "le"
      ],
      [
        "Ġse",
        "c"
      ],
      [
        "Ġst",
        "ud"
      ],
      [
        "g",
        "et"
      ],
      [
        "Ġg",
        "u"
      ],
      [
        "Ġsu",
        "ch"
      ],
      [
        "vel",
        "op"
      ],
      [
        "ul",
        "ar"
      ],
      [
        "Ġst",
        "art"
      ],
      [
        "Ġd",
        "own"
      ],
      [
        "o",
        "ck"
      ],
      [
        "er",
        "m"
      ],
      [
        "an",
        "y"
      ],
      [
        "o",
        "ol"
      ],
      [
        "Ġat",
        "t"
      ],
      [
        "ĠS",
        "e"
      ],
      [
        "Ġf",
        "in"
      ],
      [
        "b",
        "le"
      ],
      [
        "id",
        "ent"
      ],
      [
        "Ġ",
        "$"
      ],
      [
        "y",
        "s"
      ],
      [
        "ur",
        "ing"
      ],
      [
        "Ġg",
        "reat"
      ],
      [
        "ow",
        "er"
      ],
      [
        "t",
        "s"
      ],
      [
        "ĠU",
        "n"
      ],
      [
        "ĠA",
        "s"
      ],
      [
        "Ġb",
        "us"
      ],
      [
        "Ġo",
        "wn"
      ],
      [
        "Ġa",
        "c"
      ],
      [
        "at",
        "h"
      ],
      [
        "Ġth",
        "ink"
      ],
      [
        "he",
        "s"
      ],
      [
        "Ġex",
        "per"
      ],
      [
        "i",
        "ed"
      ],
      [
        "ic",
        "es"
      ],
      [
        "t",
        "y"
      ],
      [
        "h",
        "ip"
      ],
      [
        "u",
        "p"
      ],
      [
        "Ġm",
        "uch"
      ],
      [
        "form",
        "ation"
      ],
      [
        "ĠW",
        "h"
      ],
      [
        "ot",
        "her"
      ],
      [
        "or",
        "k"
      ],
      [
        "|",
        "|"
      ],
      [
        "al",
        "th"
      ],
      [
        "Ġto",
        "o"
      ],
      [
        "at",
        "ive"
      ],
      [
        "st",
        "em"
      ],
      [
        "Ġin",
        "te"
      ],
      [
        "Ġl",
        "ong"
      ],
      [
        "it",
        "s"
      ],
      [
        "Ġ",
        "ent"
      ],
      [
        "u",
        "nd"
      ],
      [
        "pe",
        "ct"
      ],
      [
        "ic",
        "s"
      ],
      [
        "Ġh",
        "igh"
      ],
      [
        "Ġwe",
        "e"
      ],
      [
        "a",
        "ir"
      ],
      [
        "Ġbe",
        "l"
      ],
      [
        "Ġag",
        "ain"
      ],
      [
        "it",
        "ed"
      ],
      [
        "ar",
        "ch"
      ],
      [
        "âĢ",
        "ľ"
      ],
      [
        "Ġin",
        "st"
      ],
      [
        "g",
        "an"
      ],
      [
        "I",
        "n"
      ],
      [
        "Ġbe",
        "ing"
      ],
      [
        "Ġd",
        "ay"
      ],
      [
        "e",
        "ll"
      ],
      [
        "re",
        "st"
      ],
      [
        "Ġs",
        "et"
      ],
      [
        "ĠA",
        "nd"
      ],
      [
        "ri",
        "b"
      ],
      [
        "as",
        "on"
      ],
      [
        "om",
        "et"
      ],
      [
        "n",
        "er"
      ],
      [
        "ĠC",
        "om"
      ],
      [
        "ic",
        "t"
      ],
      [
        "Ġt",
        "ake"
      ],
      [
        "Ġp",
        "res"
      ],
      [
        ")",
        ","
      ],
      [
        "Ġhe",
        "re"
      ],
      [
        "Ġbe",
        "fore"
      ],
      [
        "Ġs",
        "im"
      ],
      [
        "Ġdo",
        "es"
      ],
      [
        "Ġf",
        "ind"
      ],
      [
        "ra",
        "ct"
      ],
      [
        "Ġdif",
        "fe"
      ],
      [
        "Ġm",
        "on"
      ],
      [
        "Ġre",
        "ad"
      ],
      [
        "Ġe",
        "nd"
      ],
      [
        "al",
        "k"
      ],
      [
        "Ġth",
        "ose"
      ],
      [
        "en",
        "er"
      ],
      [
        "i",
        "o"
      ],
      [
        "w",
        "ay"
      ],
      [
        "Ġc",
        "all"
      ],
      [
        "Ġsh",
        "ow"
      ],
      [
        "Ġb",
        "est"
      ],
      [
        "Ġm",
        "ade"
      ],
      [
        "a",
        "x"
      ],
      [
        "Ġre",
        "qu"
      ],
      [
        "ĠP",
        "ro"
      ],
      [
        "i",
        "x"
      ],
      [
        "ĠA",
        "n"
      ],
      [
        "Ġc",
        "ar"
      ],
      [
        "ĠD",
        "e"
      ],
      [
        "Ġh",
        "ome"
      ],
      [
        "Ġs",
        "ur"
      ],
      [
        "Ġl",
        "ast"
      ],
      [
        "Ġin",
        "s"
      ],
      [
        "gr",
        "am"
      ],
      [
        "u",
        "es"
      ],
      [
        "Ġde",
        "velop"
      ],
      [
        "Ġas",
        "s"
      ],
      [
        "Ġ",
        "&"
      ],
      [
        "u",
        "ally"
      ],
      [
        "v",
        "ing"
      ],
      [
        "ĠI",
        "f"
      ],
      [
        "ĠN",
        "ew"
      ],
      [
        "Ġp",
        "erson"
      ],
      [
        "Ġlo",
        "c"
      ],
      [
        "Ġwor",
        "ld"
      ],
      [
        "an",
        "k"
      ],
      [
        "oll",
        "ow"
      ],
      [
        "l",
        "ine"
      ],
      [
        "c",
        "y"
      ],
      [
        "Ġm",
        "in"
      ],
      [
        "Ġb",
        "r"
      ],
      [
        "Ġha",
        "nd"
      ],
      [
        "l",
        "i"
      ],
      [
        "Ġc",
        "he"
      ],
      [
        "l",
        "ed"
      ],
      [
        "Ġin",
        "formation"
      ],
      [
        "Ġle",
        "ad"
      ],
      [
        "ch",
        "ool"
      ],
      [
        "Ġbus",
        "iness"
      ],
      [
        "Ġf",
        "am"
      ],
      [
        "Ġus",
        "ed"
      ],
      [
        "Ġa",
        "v"
      ],
      [
        "Ġm",
        "ark"
      ],
      [
        "Ġe",
        "ar"
      ],
      [
        "..",
        "."
      ],
      [
        "je",
        "ct"
      ],
      [
        "Ġm",
        "ed"
      ],
      [
        "Ġm",
        "od"
      ],
      [
        "Ġtr",
        "ans"
      ],
      [
        "v",
        "ed"
      ],
      [
        "Ġsy",
        "stem"
      ],
      [
        "p",
        "en"
      ],
      [
        "Ġl",
        "ife"
      ],
      [
        ",",
        "âĢĿ"
      ],
      [
        "Ġdis",
        "c"
      ],
      [
        "Ġm",
        "em"
      ],
      [
        "Ġre",
        "ally"
      ],
      [
        "ĠB",
        "ut"
      ],
      [
        "W",
        "e"
      ],
      [
        "ou",
        "se"
      ],
      [
        "ub",
        "lic"
      ],
      [
        "Ġwh",
        "ile"
      ],
      [
        "ch",
        "n"
      ],
      [
        "Ġin",
        "ter"
      ],
      [
        "Ġc",
        "re"
      ],
      [
        "p",
        "le"
      ],
      [
        "at",
        "ch"
      ],
      [
        "n",
        "g"
      ],
      [
        "ce",
        "pt"
      ],
      [
        "n",
        "ess"
      ],
      [
        "ro",
        "s"
      ],
      [
        "Ġgo",
        "ing"
      ],
      [
        "Ġre",
        "t"
      ],
      [
        "a",
        "ve"
      ],
      [
        "sel",
        "f"
      ],
      [
        "in",
        "ce"
      ],
      [
        "a",
        "z"
      ],
      [
        "p",
        "r"
      ],
      [
        "Ġsu",
        "b"
      ],
      [
        "Ġfor",
        "m"
      ],
      [
        "p",
        "s"
      ],
      [
        "in",
        "s"
      ],
      [
        "Ġa",
        "round"
      ],
      [
        "at",
        "a"
      ],
      [
        "Ġe",
        "ach"
      ],
      [
        "Ġn",
        "um"
      ],
      [
        "Ġs",
        "omet"
      ],
      [
        "Ġg",
        "r"
      ],
      [
        "Ġd",
        "et"
      ],
      [
        "ar",
        "m"
      ],
      [
        "Ġsu",
        "pport"
      ],
      [
        "Ġar",
        "t"
      ],
      [
        "at",
        "her"
      ],
      [
        "Ġth",
        "ough"
      ],
      [
        "Ġc",
        "ount"
      ],
      [
        "Ġp",
        "ol"
      ],
      [
        "Ġv",
        "is"
      ],
      [
        "i",
        "ence"
      ],
      [
        "im",
        "es"
      ],
      [
        ".",
        "\""
      ],
      [
        "iv",
        "es"
      ],
      [
        "Ġcomp",
        "le"
      ],
      [
        "re",
        "ad"
      ],
      [
        "Ġc",
        "ur"
      ],
      [
        "Ġte",
        "am"
      ],
      [
        "Ġs",
        "er"
      ],
      [
        "g",
        "g"
      ],
      [
        "in",
        "es"
      ],
      [
        "Ġdes",
        "ign"
      ],
      [
        "Ġf",
        "ollow"
      ],
      [
        "Ġst",
        "ill"
      ],
      [
        "e",
        "ver"
      ],
      [
        "l",
        "and"
      ],
      [
        "iz",
        "e"
      ],
      [
        "le",
        "ase"
      ],
      [
        "we",
        "en"
      ],
      [
        "Ġb",
        "ook"
      ],
      [
        "ĠS",
        "h"
      ],
      [
        "Ġr",
        "un"
      ],
      [
        "ak",
        "es"
      ],
      [
        "ion",
        "al"
      ],
      [
        "ĠS",
        "o"
      ],
      [
        "Ġs",
        "ay"
      ],
      [
        "Ġc",
        "are"
      ],
      [
        "Ġ",
        "ed"
      ],
      [
        "Ġad",
        "v"
      ],
      [
        "ire",
        "ct"
      ],
      [
        "Ġre",
        "al"
      ],
      [
        "d",
        "er"
      ],
      [
        "Ġex",
        "p"
      ],
      [
        "Th",
        "is"
      ],
      [
        "Ġs",
        "l"
      ],
      [
        "Ġdiffe",
        "rent"
      ],
      [
        "as",
        "h"
      ],
      [
        "en",
        "e"
      ],
      [
        "Ġs",
        "ame"
      ],
      [
        "e",
        "x"
      ],
      [
        "Ġpro",
        "gram"
      ],
      [
        "Ġst",
        "r"
      ],
      [
        "ction",
        "s"
      ],
      [
        "ĠA",
        "l"
      ],
      [
        "Ġprov",
        "id"
      ],
      [
        "I",
        "t"
      ],
      [
        "a",
        "h"
      ],
      [
        "al",
        "e"
      ],
      [
        "Ġs",
        "ign"
      ],
      [
        "i",
        "vers"
      ],
      [
        "ag",
        "es"
      ],
      [
        "Ġc",
        "our"
      ],
      [
        "ĠThe",
        "y"
      ],
      [
        "Ġs",
        "k"
      ],
      [
        "Ġcomm",
        "un"
      ],
      [
        "v",
        "es"
      ],
      [
        "Ġch",
        "ar"
      ],
      [
        "Ġpo",
        "int"
      ],
      [
        "et",
        "s"
      ],
      [
        "ri",
        "end"
      ],
      [
        "v",
        "iew"
      ],
      [
        "Ġbet",
        "ween"
      ],
      [
        "Ġb",
        "oth"
      ],
      [
        "Ġpl",
        "ace"
      ],
      [
        "Ġfe",
        "el"
      ],
      [
        "Ġch",
        "ild"
      ],
      [
        "ust",
        "om"
      ],
      [
        "Ġp",
        "ur"
      ],
      [
        "itt",
        "le"
      ],
      [
        "Ġth",
        "ree"
      ],
      [
        "Ġp",
        "ost"
      ],
      [
        "Ġha",
        "pp"
      ],
      [
        "Ġg",
        "l"
      ],
      [
        "Ġa",
        "ut"
      ],
      [
        "m",
        "an"
      ],
      [
        "ut",
        "e"
      ],
      [
        "Ġst",
        "ate"
      ],
      [
        "W",
        "h"
      ],
      [
        "Ġl",
        "ist"
      ],
      [
        "ĠF",
        "or"
      ],
      [
        "Ġlo",
        "ve"
      ],
      [
        "it",
        "al"
      ],
      [
        "Ġl",
        "ot"
      ],
      [
        "mer",
        "ic"
      ],
      [
        "ou",
        "n"
      ],
      [
        "w",
        "ays"
      ],
      [
        "ĠA",
        "r"
      ],
      [
        "Ġe",
        "as"
      ],
      [
        "ar",
        "s"
      ],
      [
        "at",
        "ure"
      ],
      [
        "Ġf",
        "ound"
      ],
      [
        "t",
        "he"
      ],
      [
        "et",
        "y"
      ],
      [
        "Ġb",
        "o"
      ],
      [
        "ĠC",
        "l"
      ],
      [
        "Ġfe",
        "w"
      ],
      [
        "i",
        "red"
      ],
      [
        "od",
        "y"
      ],
      [
        "Ġhe",
        "alth"
      ],
      [
        "ĠB",
        "e"
      ],
      [
        "Ġpro",
        "cess"
      ],
      [
        "Ġc",
        "le"
      ],
      [
        "Ġpro",
        "f"
      ],
      [
        "t",
        "on"
      ],
      [
        "Ġf",
        "ree"
      ],
      [
        "ĠL",
        "e"
      ],
      [
        "Ġm",
        "et"
      ],
      [
        "Ġinte",
        "rest"
      ],
      [
        "iz",
        "ed"
      ],
      [
        "t",
        "en"
      ],
      [
        "i",
        "ent"
      ],
      [
        "Ġf",
        "ull"
      ],
      [
        "l",
        "ess"
      ],
      [
        "Ġre",
        "f"
      ],
      [
        "ie",
        "ld"
      ],
      [
        "Ġth",
        "ings"
      ],
      [
        "Ġf",
        "un"
      ],
      [
        "Ġg",
        "ener"
      ],
      [
        "Ġc",
        "or"
      ],
      [
        "ffe",
        "ct"
      ],
      [
        "er",
        "ing"
      ],
      [
        "Ġrep",
        "ort"
      ],
      [
        "u",
        "c"
      ],
      [
        "Ġf",
        "r"
      ],
      [
        "Ġte",
        "chn"
      ],
      [
        "Ġl",
        "ar"
      ],
      [
        "th",
        "ing"
      ],
      [
        "Ġmon",
        "th"
      ],
      [
        "o",
        "h"
      ],
      [
        "am",
        "es"
      ],
      [
        "Ġl",
        "ittle"
      ],
      [
        "Ġto",
        "p"
      ],
      [
        "Ġex",
        "t"
      ],
      [
        "c",
        "l"
      ],
      [
        "Ġus",
        "ing"
      ],
      [
        "ic",
        "ally"
      ],
      [
        "Ġimp",
        "ort"
      ],
      [
        "c",
        "on"
      ],
      [
        "Ġc",
        "ent"
      ],
      [
        "c",
        "ent"
      ],
      [
        "Ġg",
        "ot"
      ],
      [
        "Ġpl",
        "an"
      ],
      [
        "b",
        "e"
      ],
      [
        "ĠB",
        "l"
      ],
      [
        "Ġcom",
        "e"
      ],
      [
        "ros",
        "s"
      ],
      [
        "Ġde",
        "f"
      ],
      [
        "Ġo",
        "pen"
      ],
      [
        "Ġav",
        "ail"
      ],
      [
        "is",
        "hed"
      ],
      [
        "Ġd",
        "uring"
      ],
      [
        "t",
        "t"
      ],
      [
        "ver",
        "n"
      ],
      [
        "ut",
        "ion"
      ],
      [
        "olog",
        "y"
      ],
      [
        "b",
        "ers"
      ],
      [
        "Ġd",
        "ata"
      ],
      [
        "ĠA",
        "meric"
      ],
      [
        "Ġg",
        "ame"
      ],
      [
        "Ġis",
        "s"
      ],
      [
        "Ġo",
        "b"
      ],
      [
        "al",
        "ity"
      ],
      [
        "ĠA",
        "d"
      ],
      [
        "at",
        "t"
      ],
      [
        "Ġre",
        "st"
      ],
      [
        "Ġsomet",
        "hing"
      ],
      [
        "Ġne",
        "xt"
      ],
      [
        "Ġres",
        "p"
      ],
      [
        "Ġke",
        "ep"
      ],
      [
        "Ġan",
        "other"
      ],
      [
        "ant",
        "s"
      ],
      [
        "is",
        "m"
      ],
      [
        "er",
        "n"
      ],
      [
        "Ġapp",
        "ro"
      ],
      [
        ",",
        "\""
      ],
      [
        "ar",
        "n"
      ],
      [
        "Ġcont",
        "in"
      ],
      [
        "iv",
        "ing"
      ],
      [
        "ĠThe",
        "re"
      ],
      [
        "Ġsm",
        "all"
      ],
      [
        "Ġc",
        "ustom"
      ],
      [
        "Ġwith",
        "out"
      ],
      [
        "Ġcomp",
        "any"
      ],
      [
        "Ġpart",
        "ic"
      ],
      [
        "Ġp",
        "oss"
      ],
      [
        "ent",
        "ion"
      ],
      [
        "ur",
        "al"
      ],
      [
        "Ġm",
        "ust"
      ],
      [
        "ist",
        "s"
      ],
      [
        "Ġwee",
        "k"
      ],
      [
        "w",
        "are"
      ],
      [
        "Ġinclud",
        "ing"
      ],
      [
        "Ġall",
        "ow"
      ],
      [
        "re",
        "en"
      ],
      [
        "Ġf",
        "il"
      ],
      [
        "Ġp",
        "ri"
      ],
      [
        "Ġp",
        "ut"
      ],
      [
        "Ġt",
        "ry"
      ],
      [
        "Ġres",
        "ult"
      ],
      [
        "Ġal",
        "ways"
      ],
      [
        "in",
        "ed"
      ],
      [
        "Ġv",
        "ar"
      ],
      [
        "Ġl",
        "aw"
      ],
      [
        "Ġf",
        "act"
      ],
      [
        "Ġin",
        "t"
      ],
      [
        "Ġg",
        "rou"
      ],
      [
        "u",
        "g"
      ],
      [
        "Ġo",
        "pt"
      ],
      [
        "Ġbet",
        "ter"
      ],
      [
        "Ġhe",
        "ad"
      ],
      [
        "Ġm",
        "ight"
      ],
      [
        "Ġb",
        "ig"
      ],
      [
        "Ġs",
        "chool"
      ],
      [
        "ra",
        "nd"
      ],
      [
        "a",
        "red"
      ],
      [
        "Ġcon",
        "f"
      ],
      [
        "Ġd",
        "ist"
      ],
      [
        "Ġst",
        "and"
      ],
      [
        "Ġmark",
        "et"
      ],
      [
        "Ġt",
        "y"
      ],
      [
        "Ġv",
        "al"
      ],
      [
        "Ġavail",
        "able"
      ],
      [
        "Ġd",
        "ri"
      ],
      [
        "Ġp",
        "ass"
      ],
      [
        "Ġsec",
        "ond"
      ],
      [
        "ĠS",
        "he"
      ],
      [
        "ĠH",
        "ow"
      ],
      [
        "ble",
        "m"
      ],
      [
        "Ġf",
        "riend"
      ],
      [
        "g",
        "y"
      ],
      [
        "amp",
        "le"
      ],
      [
        "i",
        "qu"
      ],
      [
        "or",
        "n"
      ],
      [
        "Ġh",
        "ard"
      ],
      [
        "Ġp",
        "at"
      ],
      [
        "Ġor",
        "gan"
      ],
      [
        "in",
        "ing"
      ],
      [
        "Ġs",
        "ol"
      ],
      [
        "Ġt",
        "ri"
      ],
      [
        "r",
        "ist"
      ],
      [
        "Ġne",
        "ver"
      ],
      [
        "Ġe",
        "l"
      ],
      [
        "Ġm",
        "ain"
      ],
      [
        "pl",
        "oy"
      ],
      [
        "Ġinc",
        "re"
      ],
      [
        "Ġqu",
        "est"
      ],
      [
        "g",
        "er"
      ],
      [
        "Ġm",
        "ov"
      ],
      [
        "i",
        "er"
      ],
      [
        "Ġc",
        "a"
      ],
      [
        "o",
        "ot"
      ],
      [
        "en",
        "se"
      ],
      [
        "ro",
        "l"
      ],
      [
        "Ġw",
        "om"
      ],
      [
        "Ġo",
        "ld"
      ],
      [
        "Ġp",
        "ay"
      ],
      [
        "Ġas",
        "k"
      ],
      [
        "Ġre",
        "ce"
      ],
      [
        "Ġfam",
        "ily"
      ],
      [
        "Ġbu",
        "ild"
      ],
      [
        "Ġnum",
        "ber"
      ],
      [
        "Ġc",
        "r"
      ],
      [
        "Ġs",
        "ince"
      ],
      [
        "el",
        "s"
      ],
      [
        "Ġinv",
        "est"
      ],
      [
        "âĢ",
        "¦"
      ],
      [
        "Ġb",
        "ro"
      ],
      [
        "Ġp",
        "ublic"
      ],
      [
        "Ġd",
        "ays"
      ],
      [
        "st",
        "and"
      ],
      [
        "u",
        "ck"
      ],
      [
        "Ġle",
        "vel"
      ],
      [
        "t",
        "ed"
      ],
      [
        "Ġc",
        "ost"
      ],
      [
        "Ġp",
        "ower"
      ],
      [
        "ĠI",
        "nd"
      ],
      [
        "us",
        "s"
      ],
      [
        "one",
        "y"
      ],
      [
        "a",
        "j"
      ],
      [
        "i",
        "or"
      ],
      [
        "ill",
        "ion"
      ],
      [
        "ren",
        "ce"
      ],
      [
        "Ġpro",
        "blem"
      ],
      [
        "cc",
        "ess"
      ],
      [
        "I",
        "f"
      ],
      [
        "ert",
        "ain"
      ],
      [
        "Ġagain",
        "st"
      ],
      [
        "r",
        "al"
      ],
      [
        "Ġd",
        "irect"
      ],
      [
        "Ġserv",
        "ice"
      ],
      [
        "Ġspe",
        "c"
      ],
      [
        "ir",
        "d"
      ],
      [
        "Ġs",
        "ure"
      ],
      [
        "Ġper",
        "form"
      ],
      [
        "Ġ",
        "ide"
      ],
      [
        "l",
        "ing"
      ],
      [
        "Ġg",
        "ive"
      ],
      [
        "Ġab",
        "le"
      ],
      [
        "Ġimport",
        "ant"
      ],
      [
        "i",
        "k"
      ],
      [
        "Ġw",
        "r"
      ],
      [
        "Ġh",
        "um"
      ],
      [
        "ate",
        "ly"
      ],
      [
        "ivers",
        "ity"
      ],
      [
        "Ġcl",
        "ass"
      ],
      [
        "Ġbel",
        "ie"
      ],
      [
        "w",
        "w"
      ],
      [
        "Ġexper",
        "ience"
      ],
      [
        "Ġ",
        "i"
      ],
      [
        "Ġw",
        "in"
      ],
      [
        "âĢ",
        "Ķ"
      ],
      [
        "w",
        "ork"
      ],
      [
        "Ġ",
        "ve"
      ],
      [
        "Ġm",
        "us"
      ],
      [
        "ĠP",
        "l"
      ],
      [
        "pe",
        "nd"
      ],
      [
        "Ġd",
        "i"
      ],
      [
        "our",
        "s"
      ],
      [
        "ĠâĢ",
        "Ķ"
      ],
      [
        "Ġse",
        "em"
      ],
      [
        "Ġw",
        "ater"
      ],
      [
        "is",
        "ion"
      ],
      [
        "ĠF",
        "r"
      ],
      [
        "Ġex",
        "pl"
      ],
      [
        "ĠâĢ",
        "ĺ"
      ],
      [
        "op",
        "e"
      ],
      [
        "e",
        "red"
      ],
      [
        "ĠO",
        "n"
      ],
      [
        "ĠA",
        "ll"
      ],
      [
        "Ġle",
        "t"
      ],
      [
        "ĠTh",
        "at"
      ],
      [
        "Ġre",
        "se"
      ],
      [
        "Ġin",
        "f"
      ],
      [
        "ru",
        "ct"
      ],
      [
        "pp",
        "ing"
      ],
      [
        "Ġf",
        "our"
      ],
      [
        "in",
        "al"
      ],
      [
        "he",
        "re"
      ],
      [
        "Ġl",
        "ight"
      ],
      [
        "Ġ",
        "'"
      ],
      [
        "Ġu",
        "nt"
      ],
      [
        "Ġprov",
        "ide"
      ],
      [
        "Ġb",
        "re"
      ],
      [
        "at",
        "s"
      ],
      [
        "Ġwith",
        "in"
      ],
      [
        "Ġp",
        "os"
      ],
      [
        "as",
        "es"
      ],
      [
        "ĠC",
        "on"
      ],
      [
        "an",
        "c"
      ],
      [
        "ĠI",
        "s"
      ],
      [
        "Ġ",
        "Q"
      ],
      [
        "Ġs",
        "ays"
      ],
      [
        "Ġle",
        "g"
      ],
      [
        "ĠS",
        "p"
      ],
      [
        "m",
        "e"
      ],
      [
        "ĠE",
        "x"
      ],
      [
        "Ġcur",
        "rent"
      ],
      [
        "Ġj",
        "ob"
      ],
      [
        "Ġacc",
        "ess"
      ],
      [
        "Ġon",
        "line"
      ],
      [
        "Ġl",
        "ess"
      ],
      [
        "Ġg",
        "row"
      ],
      [
        "g",
        "in"
      ],
      [
        "ard",
        "s"
      ],
      [
        "Ġpres",
        "ent"
      ],
      [
        "E",
        "R"
      ],
      [
        "ab",
        "ly"
      ],
      [
        "l",
        "o"
      ],
      [
        "ot",
        "e"
      ],
      [
        "ĠT",
        "e"
      ],
      [
        "H",
        "e"
      ],
      [
        "ra",
        "ph"
      ],
      [
        "pp",
        "ed"
      ],
      [
        "Ġare",
        "a"
      ],
      [
        "m",
        "ed"
      ],
      [
        "Ġor",
        "der"
      ],
      [
        "Ġto",
        "day"
      ],
      [
        "Ġpro",
        "per"
      ],
      [
        "a",
        "ut"
      ],
      [
        "Ġt",
        "est"
      ],
      [
        "Ġ",
        "est"
      ],
      [
        "p",
        "os"
      ],
      [
        "Ġa",
        "way"
      ],
      [
        "Ġt",
        "urn"
      ],
      [
        "ou",
        "th"
      ],
      [
        "ĠP",
        "h"
      ],
      [
        "r",
        "on"
      ],
      [
        "Ġbe",
        "h"
      ],
      [
        "Ġgo",
        "vern"
      ],
      [
        "Y",
        "ou"
      ],
      [
        "c",
        "o"
      ],
      [
        "Ġse",
        "ason"
      ],
      [
        "ĠC",
        "ol"
      ],
      [
        "Ġo",
        "per"
      ],
      [
        "Ġs",
        "al"
      ],
      [
        "Ġp",
        "op"
      ],
      [
        "c",
        "u"
      ],
      [
        "Ġs",
        "it"
      ],
      [
        "Ġme",
        "et"
      ],
      [
        "o",
        "k"
      ],
      [
        "Ġt",
        "erm"
      ],
      [
        "Ġan",
        "n"
      ],
      [
        "ord",
        "ing"
      ],
      [
        "Ġn",
        "ight"
      ],
      [
        "ff",
        "ic"
      ],
      [
        "iv",
        "id"
      ],
      [
        "iss",
        "ion"
      ],
      [
        "r",
        "ation"
      ],
      [
        "i",
        "ents"
      ],
      [
        "Ġc",
        "ap"
      ],
      [
        "ent",
        "ly"
      ],
      [
        "ur",
        "y"
      ],
      [
        "A",
        "s"
      ],
      [
        "en",
        "cy"
      ],
      [
        "ir",
        "on"
      ],
      [
        "id",
        "er"
      ],
      [
        "at",
        "or"
      ],
      [
        "Ġen",
        "g"
      ],
      [
        "ain",
        "s"
      ],
      [
        "Ġv",
        "iew"
      ],
      [
        "Ġp",
        "rom"
      ],
      [
        "p",
        "or"
      ],
      [
        "en",
        "g"
      ],
      [
        "Ġadd",
        "ition"
      ],
      [
        "Ġf",
        "ood"
      ],
      [
        "Ġloc",
        "al"
      ],
      [
        "Ġunt",
        "il"
      ],
      [
        "is",
        "ed"
      ],
      [
        "m",
        "on"
      ],
      [
        "o",
        "int"
      ],
      [
        "Ġch",
        "ang"
      ],
      [
        "e",
        "c"
      ],
      [
        "re",
        "t"
      ],
      [
        "Ġe",
        "qu"
      ],
      [
        "Ġwork",
        "ing"
      ],
      [
        "Ġm",
        "aking"
      ],
      [
        "'",
        "re"
      ],
      [
        "Ġt",
        "ru"
      ],
      [
        "Ġ",
        "Z"
      ],
      [
        "te",
        "nd"
      ],
      [
        "Ġph",
        "ot"
      ],
      [
        "Ġt",
        "alk"
      ],
      [
        "ot",
        "t"
      ],
      [
        "em",
        "ber"
      ],
      [
        "an",
        "n"
      ],
      [
        "Ġlook",
        "ing"
      ],
      [
        "Ġpro",
        "te"
      ],
      [
        "Ġch",
        "ange"
      ],
      [
        "Ġth",
        "ing"
      ],
      [
        "h",
        "or"
      ],
      [
        "ort",
        "s"
      ],
      [
        "Ġwe",
        "bs"
      ],
      [
        "Ġle",
        "ft"
      ],
      [
        "Ġpre",
        "v"
      ],
      [
        "um",
        "p"
      ],
      [
        "so",
        "ci"
      ],
      [
        "Ġp",
        "ast"
      ],
      [
        "Ġs",
        "ing"
      ],
      [
        "Ġb",
        "as"
      ],
      [
        "ab",
        "ility"
      ],
      [
        "Ġsu",
        "pp"
      ],
      [
        "s",
        "h"
      ],
      [
        "le",
        "y"
      ],
      [
        "Ġh",
        "ist"
      ],
      [
        "Ġde",
        "v"
      ],
      [
        "om",
        "m"
      ],
      [
        "ĠU",
        "S"
      ],
      [
        "or",
        "ies"
      ],
      [
        "Ġf",
        "ac"
      ],
      [
        "Ġcon",
        "c"
      ],
      [
        "re",
        "am"
      ],
      [
        "or",
        "th"
      ],
      [
        "ĠT",
        "o"
      ],
      [
        "ar",
        "ing"
      ],
      [
        "Ġp",
        "ract"
      ],
      [
        "Ġm",
        "oney"
      ],
      [
        "Ġm",
        "ove"
      ],
      [
        "if",
        "y"
      ],
      [
        "Ġprof",
        "ess"
      ],
      [
        "e",
        "ad"
      ],
      [
        "Ġprodu",
        "ct"
      ],
      [
        "Ġcour",
        "se"
      ],
      [
        "Ġin",
        "tern"
      ],
      [
        "Ġserv",
        "ices"
      ],
      [
        "age",
        "ment"
      ],
      [
        "ne",
        "y"
      ],
      [
        "ĠR",
        "es"
      ],
      [
        "ĠN",
        "o"
      ],
      [
        "Ġspe",
        "cial"
      ],
      [
        "Ġsu",
        "ccess"
      ],
      [
        "if",
        "ied"
      ],
      [
        "id",
        "s"
      ],
      [
        "le",
        "ction"
      ],
      [
        "Ġchild",
        "ren"
      ],
      [
        "g",
        "ed"
      ],
      [
        "in",
        "ation"
      ],
      [
        "Ġstud",
        "ents"
      ],
      [
        "Ġn",
        "ame"
      ],
      [
        "Ġv",
        "ide"
      ],
      [
        "ic",
        "le"
      ],
      [
        "ĠO",
        "r"
      ],
      [
        "b",
        "o"
      ],
      [
        "j",
        "oy"
      ],
      [
        "o",
        "f"
      ],
      [
        "Ġcon",
        "st"
      ],
      [
        "in",
        "a"
      ],
      [
        "it",
        "ing"
      ],
      [
        "Ġcomple",
        "te"
      ],
      [
        "Ġe",
        "ffect"
      ],
      [
        "Ġha",
        "ving"
      ],
      [
        "Ġev",
        "ent"
      ],
      [
        "fe",
        "ct"
      ],
      [
        "Ġlar",
        "ge"
      ],
      [
        "ater",
        "ial"
      ],
      [
        "at",
        "ter"
      ],
      [
        "iz",
        "ation"
      ],
      [
        "Ġind",
        "ust"
      ],
      [
        "Ġk",
        "ind"
      ],
      [
        "is",
        "ing"
      ],
      [
        "'",
        "m"
      ],
      [
        "I",
        "N"
      ],
      [
        "Ġen",
        "ough"
      ],
      [
        "Ġche",
        "ck"
      ],
      [
        "Ġapp",
        "lic"
      ],
      [
        "le",
        "t"
      ],
      [
        "Ġro",
        "om"
      ],
      [
        "as",
        "ter"
      ],
      [
        "con",
        "om"
      ],
      [
        "i",
        "um"
      ],
      [
        "Ġs",
        "ite"
      ],
      [
        "Ġprodu",
        "cts"
      ],
      [
        "Ġs",
        "ide"
      ],
      [
        "Ġwh",
        "y"
      ],
      [
        "Ġc",
        "ase"
      ],
      [
        "er",
        "y"
      ],
      [
        "Ġm",
        "en"
      ],
      [
        "Ġinclud",
        "e"
      ],
      [
        "ver",
        "al"
      ],
      [
        "Ġoff",
        "er"
      ],
      [
        "aj",
        "or"
      ],
      [
        "l",
        "ish"
      ],
      [
        "Ġw",
        "rit"
      ],
      [
        "ĠCh",
        "rist"
      ],
      [
        "us",
        "h"
      ],
      [
        "Ġgrou",
        "p"
      ],
      [
        "Ġs",
        "w"
      ],
      [
        "oh",
        "n"
      ],
      [
        "Ġe",
        "ver"
      ],
      [
        "b",
        "y"
      ],
      [
        "it",
        "ions"
      ],
      [
        "Ġof",
        "ten"
      ],
      [
        "Ġdid",
        "n"
      ],
      [
        "Ġwor",
        "d"
      ],
      [
        "Ġto",
        "get"
      ],
      [
        "Ġtoget",
        "her"
      ],
      [
        "au",
        "gh"
      ],
      [
        "p",
        "art"
      ],
      [
        "ir",
        "l"
      ],
      [
        "Ġem",
        "ploy"
      ],
      [
        "Ġunder",
        "stand"
      ],
      [
        "ĠT",
        "r"
      ],
      [
        "Ġc",
        "ou"
      ],
      [
        "Ġd",
        "ra"
      ],
      [
        "are",
        "nt"
      ],
      [
        "read",
        "y"
      ],
      [
        "al",
        "f"
      ],
      [
        "Ġt",
        "reat"
      ],
      [
        "Ġt",
        "imes"
      ],
      [
        "Ġp",
        "ain"
      ],
      [
        "Ġte",
        "ll"
      ],
      [
        "ri",
        "es"
      ],
      [
        "ĠW",
        "hen"
      ],
      [
        "v",
        "iron"
      ],
      [
        "oc",
        "us"
      ],
      [
        "Ġh",
        "ouse"
      ],
      [
        "iv",
        "ed"
      ],
      [
        ".",
        ","
      ],
      [
        "Ġimp",
        "ro"
      ],
      [
        "ene",
        "f"
      ],
      [
        "Ġcommun",
        "ity"
      ],
      [
        "Ġrec",
        "ord"
      ],
      [
        "Ġcon",
        "d"
      ],
      [
        "Ġb",
        "it"
      ],
      [
        "ĠC",
        "ent"
      ],
      [
        "Ġd",
        "one"
      ],
      [
        "iv",
        "en"
      ],
      [
        "Ġret",
        "urn"
      ],
      [
        "ill",
        "s"
      ],
      [
        "Ġact",
        "iv"
      ],
      [
        "ure",
        "d"
      ],
      [
        "Ġne",
        "ar"
      ],
      [
        "Ġme",
        "ans"
      ],
      [
        "m",
        "in"
      ],
      [
        "Ġcont",
        "rol"
      ],
      [
        "ĠA",
        "t"
      ],
      [
        "it",
        "ive"
      ],
      [
        "O",
        "N"
      ],
      [
        "Ġso",
        "cial"
      ],
      [
        "Ġex",
        "pect"
      ],
      [
        "Ġle",
        "arn"
      ],
      [
        "Ġbec",
        "ome"
      ],
      [
        "a",
        "im"
      ],
      [
        "ot",
        "s"
      ],
      [
        "Ġ",
        "."
      ],
      [
        "Ġ",
        "es"
      ],
      [
        "ĠCom",
        "m"
      ],
      [
        "Ġb",
        "ased"
      ],
      [
        "Ġoff",
        "ic"
      ],
      [
        "F",
        "or"
      ],
      [
        "Ġacc",
        "ount"
      ],
      [
        "ent",
        "ial"
      ],
      [
        "Ġbu",
        "y"
      ],
      [
        "Ġal",
        "ong"
      ],
      [
        "un",
        "e"
      ],
      [
        "Ġl",
        "ine"
      ],
      [
        "Ġrese",
        "arch"
      ],
      [
        "Ġd",
        "r"
      ],
      [
        "ro",
        "p"
      ],
      [
        "Ġp",
        "a"
      ],
      [
        "ĠC",
        "o"
      ],
      [
        "Ġse",
        "veral"
      ],
      [
        "Ġfollow",
        "ing"
      ],
      [
        "ur",
        "s"
      ],
      [
        "ĠW",
        "ith"
      ],
      [
        "S",
        "t"
      ],
      [
        "ĠM",
        "ar"
      ],
      [
        "Ġa",
        "ir"
      ],
      [
        "ore",
        "d"
      ],
      [
        "an",
        "e"
      ],
      [
        "ĠUn",
        "iversity"
      ],
      [
        "Ġal",
        "ready"
      ],
      [
        "u",
        "ff"
      ],
      [
        "an",
        "ces"
      ],
      [
        "Ġb",
        "ody"
      ],
      [
        "Ġen",
        "joy"
      ],
      [
        "Ġmem",
        "bers"
      ],
      [
        "Ġdevelop",
        "ment"
      ],
      [
        "Ġcon",
        "ne"
      ],
      [
        "ĠM",
        "ay"
      ],
      [
        "Ġnew",
        "s"
      ],
      [
        "e",
        "e"
      ],
      [
        "ĠF",
        "l"
      ],
      [
        "Ġper",
        "cent"
      ],
      [
        "'",
        "ve"
      ],
      [
        "ĠWh",
        "at"
      ],
      [
        "it",
        "her"
      ],
      [
        "Ġtr",
        "ad"
      ],
      [
        "Wh",
        "at"
      ],
      [
        "Ġget",
        "ting"
      ],
      [
        "ivid",
        "ual"
      ],
      [
        "ĠM",
        "an"
      ],
      [
        "Ġm",
        "ar"
      ],
      [
        "Ġsh",
        "ort"
      ],
      [
        "Ġcount",
        "ry"
      ],
      [
        "A",
        "N"
      ],
      [
        "ut",
        "es"
      ],
      [
        "Ġdet",
        "ail"
      ],
      [
        "f",
        "er"
      ],
      [
        "ow",
        "s"
      ],
      [
        "Ġm",
        "il"
      ],
      [
        "Ġ",
        "|"
      ],
      [
        "i",
        "en"
      ],
      [
        "Ġm",
        "akes"
      ],
      [
        "Ġed",
        "uc"
      ],
      [
        "Ġc",
        "reat"
      ],
      [
        "Ġl",
        "a"
      ],
      [
        "pport",
        "un"
      ],
      [
        "Ġt",
        "ax"
      ],
      [
        "o",
        "ice"
      ],
      [
        "s",
        "on"
      ],
      [
        "Ġst",
        "ory"
      ],
      [
        "Ġcall",
        "ed"
      ],
      [
        "Ġle",
        "ast"
      ],
      [
        "Ġf",
        "und"
      ],
      [
        "s",
        "ide"
      ],
      [
        "Ġeas",
        "y"
      ],
      [
        "at",
        "ures"
      ],
      [
        "Ġm",
        "ajor"
      ],
      [
        "ra",
        "p"
      ],
      [
        "Ġo",
        "cc"
      ],
      [
        "os",
        "ed"
      ],
      [
        "Ġc",
        "ertain"
      ],
      [
        "Ġl",
        "ive"
      ],
      [
        "du",
        "ct"
      ],
      [
        "Ġwebs",
        "ite"
      ],
      [
        "Ġme",
        "an"
      ],
      [
        "Ġl",
        "im"
      ],
      [
        "and",
        "s"
      ],
      [
        "Ġneed",
        "s"
      ],
      [
        "Ġposs",
        "ible"
      ],
      [
        "Ġm",
        "illion"
      ],
      [
        "c",
        "rib"
      ],
      [
        "od",
        "e"
      ],
      [
        "viron",
        "ment"
      ],
      [
        "Ġ",
        "["
      ],
      [
        "Ġh",
        "old"
      ],
      [
        "f",
        "ort"
      ],
      [
        "Ġl",
        "ow"
      ],
      [
        "c",
        "hed"
      ],
      [
        "Ġf",
        "ar"
      ],
      [
        "pl",
        "ay"
      ],
      [
        "Ġf",
        "av"
      ],
      [
        "E",
        "S"
      ],
      [
        "Ġem",
        "ail"
      ],
      [
        "Ġdo",
        "ing"
      ],
      [
        "Ġcre",
        "ate"
      ],
      [
        "ap",
        "s"
      ],
      [
        "t",
        "ain"
      ],
      [
        "Ġdoes",
        "n"
      ],
      [
        "Ġw",
        "on"
      ],
      [
        "ĠC",
        "ar"
      ],
      [
        "Ġqu",
        "ality"
      ],
      [
        "id",
        "d"
      ],
      [
        "ĠS",
        "c"
      ],
      [
        "ĠA",
        "m"
      ],
      [
        "Ġpro",
        "ject"
      ],
      [
        "Ġf",
        "ocus"
      ],
      [
        "ward",
        "s"
      ],
      [
        "ĠE",
        "ng"
      ],
      [
        "n",
        "ot"
      ],
      [
        "Ġvis",
        "it"
      ],
      [
        "Ġe",
        "y"
      ],
      [
        "Ġf",
        "ore"
      ],
      [
        "Ġm",
        "om"
      ],
      [
        "Ġcom",
        "es"
      ],
      [
        "i",
        "ans"
      ],
      [
        "Ġb",
        "enef"
      ],
      [
        "Ġother",
        "s"
      ],
      [
        "iqu",
        "e"
      ],
      [
        "Ġw",
        "ent"
      ],
      [
        "f",
        "or"
      ],
      [
        "Ġn",
        "on"
      ],
      [
        "ci",
        "ally"
      ],
      [
        "Ġc",
        "ame"
      ],
      [
        "b",
        "r"
      ],
      [
        "Ġind",
        "ividual"
      ],
      [
        "A",
        "T"
      ],
      [
        "Ġhapp",
        "en"
      ],
      [
        "Ġgovern",
        "ment"
      ],
      [
        "en",
        "n"
      ],
      [
        "The",
        "re"
      ],
      [
        "ak",
        "en"
      ],
      [
        "Ġo",
        "pportun"
      ],
      [
        "Ġp",
        "ot"
      ],
      [
        "ĠC",
        "an"
      ],
      [
        "Ġcomp",
        "ut"
      ],
      [
        "y",
        "le"
      ],
      [
        "Ġp",
        "ress"
      ],
      [
        "Ġh",
        "ours"
      ],
      [
        "pt",
        "ion"
      ],
      [
        "A",
        "nd"
      ],
      [
        "ut",
        "ure"
      ],
      [
        "ĠM",
        "y"
      ],
      [
        "Ġde",
        "al"
      ],
      [
        "Ġhum",
        "an"
      ],
      [
        "ir",
        "m"
      ],
      [
        "Ġt",
        "re"
      ],
      [
        "Ġwom",
        "en"
      ],
      [
        "ĠJ",
        "ohn"
      ],
      [
        "Ġso",
        "ft"
      ],
      [
        "Ġperson",
        "al"
      ],
      [
        "Ġre",
        "view"
      ],
      [
        "Ġc",
        "amp"
      ],
      [
        "Ġm",
        "ind"
      ],
      [
        "Ġl",
        "ink"
      ],
      [
        "Ġe",
        "conom"
      ],
      [
        "Ġe",
        "lect"
      ],
      [
        "Ġy",
        "et"
      ],
      [
        "m",
        "ost"
      ],
      [
        "Ġm",
        "aterial"
      ],
      [
        "a",
        "pp"
      ],
      [
        "ull",
        "y"
      ],
      [
        "p",
        "ort"
      ],
      [
        "le",
        "ment"
      ],
      [
        "Ġtoo",
        "k"
      ],
      [
        "Ġor",
        "ig"
      ],
      [
        "Ġqu",
        "ick"
      ],
      [
        "Ġspec",
        "ific"
      ],
      [
        "er",
        "al"
      ],
      [
        "Ġyou",
        "ng"
      ],
      [
        "Ġchar",
        "act"
      ],
      [
        "/",
        "/"
      ],
      [
        "Ġm",
        "ult"
      ],
      [
        "Ġbe",
        "aut"
      ],
      [
        "A",
        "n"
      ],
      [
        "Ġon",
        "ce"
      ],
      [
        "Ġthough",
        "t"
      ],
      [
        "Ġn",
        "et"
      ],
      [
        "n",
        "ers"
      ],
      [
        "Ġc",
        "ut"
      ],
      [
        "âĢ",
        "¢"
      ],
      [
        "w",
        "h"
      ],
      [
        "Ġact",
        "ually"
      ],
      [
        "at",
        "ic"
      ],
      [
        "Ġh",
        "ot"
      ],
      [
        "Ġpartic",
        "ular"
      ],
      [
        "c",
        "ing"
      ],
      [
        "ĠG",
        "od"
      ],
      [
        "Ġex",
        "ample"
      ],
      [
        "Ġ",
        "ident"
      ],
      [
        "ur",
        "ther"
      ],
      [
        "st",
        "er"
      ],
      [
        "Ġc",
        "ity"
      ],
      [
        "Ġto",
        "ld"
      ],
      [
        "ĠR",
        "o"
      ],
      [
        "Ġear",
        "ly"
      ],
      [
        "Ġcle",
        "ar"
      ],
      [
        "Ġinv",
        "ol"
      ],
      [
        "Ġke",
        "y"
      ],
      [
        "Ġbel",
        "ow"
      ],
      [
        "fe",
        "rence"
      ],
      [
        "ĠA",
        "pp"
      ],
      [
        "ul",
        "ation"
      ],
      [
        "ĠB",
        "r"
      ],
      [
        "Ġ-",
        "-"
      ],
      [
        "lo",
        "ad"
      ],
      [
        "u",
        "ro"
      ],
      [
        "ĠSt",
        "ate"
      ],
      [
        "Ġvide",
        "o"
      ],
      [
        "Ġre",
        "du"
      ],
      [
        "Ġst",
        "ep"
      ],
      [
        "Ġcont",
        "act"
      ],
      [
        "ver",
        "age"
      ],
      [
        "g",
        "es"
      ],
      [
        "Ġac",
        "ross"
      ],
      [
        "a",
        "ff"
      ],
      [
        "Ġf",
        "ive"
      ],
      [
        "a",
        "pe"
      ],
      [
        "Ġstr",
        "ong"
      ],
      [
        "Ġre",
        "ason"
      ],
      [
        "ate",
        "g"
      ],
      [
        "ro",
        "om"
      ],
      [
        "Ġf",
        "ield"
      ],
      [
        "Ġmus",
        "ic"
      ],
      [
        "A",
        "R"
      ],
      [
        "it",
        "or"
      ],
      [
        "Ġcomp",
        "et"
      ],
      [
        "Ġcl",
        "ose"
      ],
      [
        "Ġbr",
        "ing"
      ],
      [
        "m",
        "ber"
      ],
      [
        "Ġl",
        "ater"
      ],
      [
        "ens",
        "ive"
      ],
      [
        "Ġpur",
        "ch"
      ],
      [
        "Ġp",
        "age"
      ],
      [
        "Ġstart",
        "ed"
      ],
      [
        "O",
        "R"
      ],
      [
        "c",
        "hes"
      ],
      [
        "Ġrequ",
        "ire"
      ],
      [
        "id",
        "es"
      ],
      [
        "ĠS",
        "u"
      ],
      [
        "l",
        "ished"
      ],
      [
        "Ġper",
        "fect"
      ],
      [
        ":",
        "//"
      ],
      [
        "Ġf",
        "uture"
      ],
      [
        "if",
        "t"
      ],
      [
        "je",
        "cts"
      ],
      [
        "d",
        "e"
      ],
      [
        "Ġt",
        "em"
      ],
      [
        "Ġc",
        "ult"
      ],
      [
        "c",
        "le"
      ],
      [
        "Ġty",
        "p"
      ],
      [
        "l",
        "f"
      ],
      [
        "ll",
        "ing"
      ],
      [
        "Ġc",
        "e"
      ],
      [
        "Ġr",
        "is"
      ],
      [
        "'",
        "ll"
      ],
      [
        "Ġch",
        "all"
      ],
      [
        "Ġfriend",
        "s"
      ],
      [
        "b",
        "ook"
      ],
      [
        "our",
        "ces"
      ],
      [
        "un",
        "ch"
      ],
      [
        "Ġhe",
        "art"
      ],
      [
        "Ġc",
        "ir"
      ],
      [
        "ĠD",
        "o"
      ],
      [
        "Ġpri",
        "v"
      ],
      [
        "Ġit",
        "em"
      ],
      [
        "Ġ",
        "vers"
      ],
      [
        "!",
        "!"
      ],
      [
        "Ġp",
        "ack"
      ],
      [
        "Ġw",
        "a"
      ],
      [
        "u",
        "se"
      ],
      [
        "ĠS",
        "te"
      ],
      [
        "ĠR",
        "ep"
      ],
      [
        "B",
        "ut"
      ],
      [
        "Ġw",
        "ind"
      ],
      [
        "o",
        "ver"
      ],
      [
        "on",
        "es"
      ],
      [
        "er",
        "r"
      ],
      [
        "Ġh",
        "ig"
      ],
      [
        "ight",
        "s"
      ],
      [
        "Ġen",
        "s"
      ],
      [
        "S",
        "o"
      ],
      [
        "Ġse",
        "en"
      ],
      [
        "ĠAmeric",
        "an"
      ],
      [
        "ill",
        "ed"
      ],
      [
        "p",
        "ro"
      ],
      [
        "Ġmonth",
        "s"
      ],
      [
        "Ġsp",
        "ace"
      ],
      [
        "Ġs",
        "um"
      ],
      [
        "Ġcom",
        "b"
      ],
      [
        "g",
        "o"
      ],
      [
        "id",
        "ay"
      ],
      [
        "Ġfil",
        "m"
      ],
      [
        "ĠThe",
        "se"
      ],
      [
        "Ġto",
        "t"
      ],
      [
        "our",
        "ce"
      ],
      [
        "ĠUn",
        "ited"
      ],
      [
        "Ġw",
        "alk"
      ],
      [
        "ur",
        "ity"
      ],
      [
        "Ġman",
        "ag"
      ],
      [
        "Ġknow",
        "n"
      ],
      [
        "Ġan",
        "al"
      ],
      [
        "ic",
        "y"
      ],
      [
        "oo",
        "se"
      ],
      [
        "Ġp",
        "ar"
      ],
      [
        "an",
        "ies"
      ],
      [
        "ac",
        "y"
      ],
      [
        "W",
        "hen"
      ],
      [
        "l",
        "er"
      ],
      [
        "Ġp",
        "ick"
      ],
      [
        "Ġresp",
        "ons"
      ],
      [
        "ĠF",
        "e"
      ],
      [
        "ut",
        "ions"
      ],
      [
        "Ġpro",
        "b"
      ],
      [
        "Ġde",
        "m"
      ],
      [
        "ĠM",
        "ed"
      ],
      [
        "Ġ",
        "X"
      ],
      [
        "o",
        "on"
      ],
      [
        "ĠN",
        "e"
      ],
      [
        "og",
        "raph"
      ],
      [
        "ĠHow",
        "ever"
      ],
      [
        "Ġh",
        "alf"
      ],
      [
        "at",
        "ural"
      ],
      [
        "ra",
        "in"
      ],
      [
        "Ġaut",
        "hor"
      ],
      [
        "i",
        "od"
      ],
      [
        "ĠC",
        "al"
      ],
      [
        "Ġpr",
        "ice"
      ],
      [
        "Ġph",
        "ys"
      ],
      [
        "H",
        "ow"
      ],
      [
        "Ġapp",
        "ear"
      ],
      [
        "Ġvar",
        "i"
      ],
      [
        "Ġindust",
        "ry"
      ],
      [
        "ĠY",
        "ork"
      ],
      [
        "led",
        "ge"
      ],
      [
        "Ġw",
        "ar"
      ],
      [
        "ne",
        "w"
      ],
      [
        "Ġcont",
        "ent"
      ],
      [
        "Ġany",
        "thing"
      ],
      [
        "or",
        "g"
      ],
      [
        "Ġp",
        "ie"
      ],
      [
        "Ġe",
        "t"
      ],
      [
        "Ġex",
        "c"
      ],
      [
        "u",
        "ation"
      ],
      [
        "ĠIn",
        "tern"
      ],
      [
        "p",
        "ar"
      ],
      [
        "Ġbe",
        "gin"
      ],
      [
        "ĠO",
        "ne"
      ],
      [
        "Ġen",
        "vironment"
      ],
      [
        "Ġsome",
        "one"
      ],
      [
        "Ġs",
        "ound"
      ],
      [
        "our",
        "n"
      ],
      [
        "Ġre",
        "le"
      ],
      [
        "Ġst",
        "ore"
      ],
      [
        "is",
        "ter"
      ],
      [
        "Ġf",
        "re"
      ],
      [
        "Ġst",
        "ay"
      ],
      [
        "a",
        "i"
      ],
      [
        "Ġsh",
        "are"
      ],
      [
        "ci",
        "ence"
      ],
      [
        "ib",
        "ility"
      ],
      [
        "o",
        "or"
      ],
      [
        "âĢ",
        "ĵ"
      ],
      [
        "th",
        "ough"
      ],
      [
        "Ġam",
        "ong"
      ],
      [
        "ip",
        "s"
      ],
      [
        "at",
        "ur"
      ],
      [
        "Ġpl",
        "ac"
      ],
      [
        "Ġwhe",
        "ther"
      ],
      [
        "Ġbelie",
        "ve"
      ],
      [
        "b",
        "ack"
      ],
      [
        "is",
        "on"
      ],
      [
        "le",
        "ge"
      ],
      [
        "Ġf",
        "ace"
      ],
      [
        "ur",
        "ch"
      ],
      [
        "un",
        "g"
      ],
      [
        "res",
        "ent"
      ],
      [
        "Ġse",
        "arch"
      ],
      [
        "Ġdisc",
        "uss"
      ],
      [
        "her",
        "s"
      ],
      [
        "Ġbl",
        "og"
      ],
      [
        "Ġh",
        "ope"
      ],
      [
        "il",
        "ities"
      ],
      [
        "s",
        "w"
      ],
      [
        "Ġme",
        "as"
      ],
      [
        "il",
        "ar"
      ],
      [
        "Ġfr",
        "ont"
      ],
      [
        "Ġde",
        "li"
      ],
      [
        "or",
        "ld"
      ],
      [
        "re",
        "w"
      ],
      [
        "Ġstud",
        "y"
      ],
      [
        "re",
        "et"
      ],
      [
        "ent",
        "al"
      ],
      [
        "ct",
        "or"
      ],
      [
        "ĠE",
        "n"
      ],
      [
        "Ġen",
        "er"
      ],
      [
        "Ġab",
        "ove"
      ],
      [
        "g",
        "ing"
      ],
      [
        "u",
        "ed"
      ],
      [
        "Ġsu",
        "per"
      ],
      [
        "pe",
        "cially"
      ],
      [
        "Ġ",
        "Â"
      ],
      [
        "ric",
        "t"
      ],
      [
        "Ġrec",
        "omm"
      ],
      [
        "Ġhist",
        "ory"
      ],
      [
        "Ġam",
        "ount"
      ],
      [
        "Ġcomm",
        "on"
      ],
      [
        "E",
        "D"
      ],
      [
        "ĠC",
        "ont"
      ],
      [
        "ĠB",
        "ro"
      ],
      [
        "Ġg",
        "ames"
      ],
      [
        "Ġare",
        "as"
      ],
      [
        "Ġwho",
        "le"
      ],
      [
        "Ġrecomm",
        "end"
      ],
      [
        "in",
        "o"
      ],
      [
        "Ġcl",
        "aim"
      ],
      [
        "os",
        "p"
      ],
      [
        "Ġag",
        "o"
      ],
      [
        "Ġiss",
        "ues"
      ],
      [
        "p",
        "ly"
      ],
      [
        "as",
        "ing"
      ],
      [
        "Ġen",
        "c"
      ],
      [
        "ĠP",
        "r"
      ],
      [
        "Ġe",
        "ff"
      ],
      [
        "Ġth",
        "ird"
      ],
      [
        "Ġg",
        "iven"
      ],
      [
        "ĠN",
        "ot"
      ],
      [
        "Ġp",
        "ort"
      ],
      [
        "ĠC",
        "ount"
      ],
      [
        "il",
        "le"
      ],
      [
        "Ġevery",
        "thing"
      ],
      [
        "Ġsing",
        "le"
      ],
      [
        "Ġquest",
        "ion"
      ],
      [
        "Ġan",
        "t"
      ],
      [
        "Ġg",
        "irl"
      ],
      [
        "I",
        "S"
      ],
      [
        "Ġj",
        "o"
      ],
      [
        "Ġa",
        "ge"
      ],
      [
        "f",
        "ic"
      ],
      [
        "Ġm",
        "or"
      ],
      [
        "Ġpol",
        "it"
      ],
      [
        "at",
        "ors"
      ],
      [
        "og",
        "n"
      ],
      [
        "ab",
        "or"
      ],
      [
        "Ġrel",
        "ations"
      ],
      [
        "Ġt",
        "aken"
      ],
      [
        "ĠC",
        "ity"
      ],
      [
        "f",
        "ully"
      ],
      [
        "Ġp",
        "ub"
      ],
      [
        "Ġe",
        "ither"
      ],
      [
        "am",
        "s"
      ],
      [
        "m",
        "b"
      ],
      [
        "Ġp",
        "lease"
      ],
      [
        "am",
        "a"
      ],
      [
        "Ġr",
        "ange"
      ],
      [
        "Ġmed",
        "ia"
      ],
      [
        "Ġd",
        "ue"
      ],
      [
        "Ġcomp",
        "anies"
      ],
      [
        "C",
        "h"
      ],
      [
        "a",
        "f"
      ],
      [
        "Ġbre",
        "ak"
      ],
      [
        "O",
        "n"
      ],
      [
        "ĠS",
        "y"
      ],
      [
        "Ġtechn",
        "ology"
      ],
      [
        "sel",
        "ves"
      ],
      [
        "Ġadd",
        "ress"
      ],
      [
        "ĠS",
        "erv"
      ],
      [
        "h",
        "od"
      ],
      [
        "Ġ",
        "ess"
      ],
      [
        "Ġf",
        "all"
      ],
      [
        "ĠC",
        "he"
      ],
      [
        "Ġsim",
        "ple"
      ],
      [
        "id",
        "ed"
      ],
      [
        "il",
        "t"
      ],
      [
        "Ġb",
        "ad"
      ],
      [
        "Ġwork",
        "s"
      ],
      [
        "Ġs",
        "ix"
      ],
      [
        "it",
        "es"
      ],
      [
        "Ġt",
        "aking"
      ],
      [
        "p",
        "ut"
      ],
      [
        "Ġc",
        "ra"
      ],
      [
        "Ġm",
        "ot"
      ],
      [
        "ain",
        "ed"
      ],
      [
        "gg",
        "est"
      ],
      [
        "Ġre",
        "d"
      ],
      [
        "Ġresult",
        "s"
      ],
      [
        "Ġfav",
        "or"
      ],
      [
        "im",
        "ate"
      ],
      [
        "Ġm",
        "ess"
      ],
      [
        "ĠE",
        "uro"
      ],
      [
        "Ġal",
        "most"
      ],
      [
        "Ġper",
        "iod"
      ],
      [
        "b",
        "all"
      ],
      [
        "Ġfe",
        "atures"
      ],
      [
        "c",
        "ri"
      ],
      [
        "Ġf",
        "urther"
      ],
      [
        "Ġst",
        "e"
      ],
      [
        "Ġb",
        "ar"
      ],
      [
        "Ġw",
        "atch"
      ],
      [
        "Ġv",
        "ol"
      ],
      [
        "Ġcons",
        "ider"
      ],
      [
        "ro",
        "du"
      ],
      [
        "Ġcomput",
        "er"
      ],
      [
        "Ġman",
        "agement"
      ],
      [
        "ĠM",
        "in"
      ],
      [
        "Ġmin",
        "utes"
      ],
      [
        "ĠM",
        "e"
      ],
      [
        "ĠY",
        "our"
      ],
      [
        "Ġab",
        "s"
      ],
      [
        "t",
        "ime"
      ],
      [
        "c",
        "ome"
      ],
      [
        ".",
        ")"
      ],
      [
        "E",
        "N"
      ],
      [
        "Ġ",
        "/"
      ],
      [
        "ri",
        "ed"
      ],
      [
        "ce",
        "ll"
      ],
      [
        "Ġde",
        "l"
      ],
      [
        "Ġpre",
        "t"
      ],
      [
        "Ġne",
        "cess"
      ],
      [
        "ĠIn",
        "st"
      ],
      [
        "r",
        "ing"
      ],
      [
        "Ġlike",
        "ly"
      ],
      [
        "d",
        "d"
      ],
      [
        "ch",
        "ie"
      ],
      [
        "Ġse",
        "x"
      ],
      [
        "Ġa",
        "ff"
      ],
      [
        "Ġtry",
        "ing"
      ],
      [
        "i",
        "ally"
      ],
      [
        "ĠM",
        "c"
      ],
      [
        "Ġquest",
        "ions"
      ],
      [
        "Ġbuild",
        "ing"
      ],
      [
        "Ġacc",
        "ording"
      ],
      [
        "Ġbl",
        "ack"
      ],
      [
        "Ġval",
        "ue"
      ],
      [
        "Ġa",
        "ud"
      ],
      [
        "Ġoff",
        "ice"
      ],
      [
        "Ġide",
        "a"
      ],
      [
        "Ġtra",
        "ck"
      ],
      [
        "Ġinst",
        "all"
      ],
      [
        "Ġ",
        "#"
      ],
      [
        "if",
        "ul"
      ],
      [
        "Ġpoint",
        "s"
      ],
      [
        "itt",
        "ed"
      ],
      [
        "Ġse",
        "lf"
      ],
      [
        "Ġc",
        "red"
      ],
      [
        "ĠN",
        "ational"
      ],
      [
        "i",
        "res"
      ],
      [
        "us",
        "ed"
      ],
      [
        "ro",
        "ll"
      ],
      [
        "ĠP",
        "res"
      ],
      [
        "Ġser",
        "ies"
      ],
      [
        "Ġask",
        "ed"
      ],
      [
        "R",
        "e"
      ],
      [
        "Ġcle",
        "an"
      ],
      [
        "Ġevery",
        "one"
      ],
      [
        "g",
        "ress"
      ],
      [
        "y",
        "ear"
      ],
      [
        "c",
        "he"
      ],
      [
        "ic",
        "ation"
      ],
      [
        "Ġsu",
        "ggest"
      ],
      [
        "Ġm",
        "iss"
      ],
      [
        "pl",
        "es"
      ],
      [
        "v",
        "ent"
      ],
      [
        "Ġ",
        "z"
      ],
      [
        "id",
        "ence"
      ],
      [
        "Ġto",
        "ol"
      ],
      [
        "ĠG",
        "u"
      ],
      [
        "Ġener",
        "gy"
      ],
      [
        "T",
        "o"
      ],
      [
        "A",
        "S"
      ],
      [
        "Ġh",
        "ost"
      ],
      [
        "op",
        "y"
      ],
      [
        "ious",
        "ly"
      ],
      [
        "g",
        "est"
      ],
      [
        "ĠO",
        "ur"
      ],
      [
        "Ġpret",
        "ty"
      ],
      [
        "Ġup",
        "d"
      ],
      [
        "Ġneed",
        "ed"
      ],
      [
        "Ġrequ",
        "ired"
      ],
      [
        "Ġbeh",
        "ind"
      ],
      [
        "he",
        "ad"
      ],
      [
        "ive",
        "ly"
      ],
      [
        "on",
        "y"
      ],
      [
        "Ġs",
        "we"
      ],
      [
        "Ġw",
        "ond"
      ],
      [
        "Ġh",
        "on"
      ],
      [
        "ver",
        "t"
      ],
      [
        "Ġhow",
        "ever"
      ],
      [
        "c",
        "er"
      ],
      [
        "Ġh",
        "tt"
      ],
      [
        "Ġst",
        "op"
      ],
      [
        "Ġs",
        "ize"
      ],
      [
        "Ġc",
        "al"
      ],
      [
        "Ġmod",
        "el"
      ],
      [
        "Ġ",
        ":"
      ],
      [
        "Ġre",
        "pl"
      ],
      [
        "ĠP",
        "art"
      ],
      [
        "Ġr",
        "ad"
      ],
      [
        "ific",
        "ation"
      ],
      [
        "Ġes",
        "pecially"
      ],
      [
        "Ġd",
        "ig"
      ],
      [
        "Ġan",
        "im"
      ],
      [
        "Ġcom",
        "ing"
      ],
      [
        "ob",
        "al"
      ],
      [
        "an",
        "cial"
      ],
      [
        "ru",
        "g"
      ],
      [
        "Ġent",
        "ire"
      ],
      [
        "a",
        "ur"
      ],
      [
        "i",
        "ver"
      ],
      [
        "Ġwe",
        "b"
      ],
      [
        "Ġoff",
        "ers"
      ],
      [
        "fic",
        "ult"
      ],
      [
        "I",
        "D"
      ],
      [
        "Ġs",
        "ent"
      ],
      [
        "Ġperform",
        "ance"
      ],
      [
        "ĠA",
        "ust"
      ],
      [
        "Ġcustom",
        "ers"
      ],
      [
        "ĠB",
        "o"
      ],
      [
        "an",
        "ks"
      ],
      [
        "ag",
        "n"
      ],
      [
        "Ġcontin",
        "ue"
      ],
      [
        "Ġel",
        "se"
      ],
      [
        "Ġprob",
        "ably"
      ],
      [
        "Ġc",
        "rit"
      ],
      [
        "it",
        "ch"
      ],
      [
        "Ġb",
        "rand"
      ],
      [
        "am",
        "er"
      ],
      [
        "w",
        "here"
      ],
      [
        "el",
        "t"
      ],
      [
        "ĠN",
        "orth"
      ],
      [
        "Ġinclud",
        "es"
      ],
      [
        "A",
        "L"
      ],
      [
        "um",
        "e"
      ],
      [
        "ĠEuro",
        "pe"
      ],
      [
        "Ġvar",
        "ious"
      ],
      [
        "Ġd",
        "ou"
      ],
      [
        "ĠW",
        "ill"
      ],
      [
        "Ġpos",
        "ition"
      ],
      [
        "ĠT",
        "H"
      ],
      [
        "res",
        "h"
      ],
      [
        "Ġqu",
        "ite"
      ],
      [
        "Ġs",
        "ens"
      ],
      [
        "Ġin",
        "it"
      ],
      [
        "Ġadd",
        "ed"
      ],
      [
        "il",
        "i"
      ],
      [
        "y",
        "n"
      ],
      [
        "Ġdo",
        "g"
      ],
      [
        "ic",
        "ro"
      ],
      [
        "ir",
        "t"
      ],
      [
        "ci",
        "ent"
      ],
      [
        "Ġwant",
        "ed"
      ],
      [
        "Ġl",
        "ay"
      ],
      [
        "ie",
        "f"
      ],
      [
        "o",
        "id"
      ],
      [
        "Ġdif",
        "ficult"
      ],
      [
        "I",
        "T"
      ],
      [
        "Ġdo",
        "cu"
      ],
      [
        "Ġpartic",
        "ip"
      ],
      [
        "ĠB",
        "ar"
      ],
      [
        "Ġsign",
        "ific"
      ],
      [
        "Ġty",
        "pe"
      ],
      [
        "Ġf",
        "ail"
      ],
      [
        "Ġatt",
        "ack"
      ],
      [
        "ul",
        "es"
      ],
      [
        "Ġt",
        "ou"
      ],
      [
        "Ġex",
        "ist"
      ],
      [
        "ĠSe",
        "c"
      ],
      [
        "Ġprote",
        "ct"
      ],
      [
        "Ġbl",
        "ood"
      ],
      [
        "Ġl",
        "and"
      ],
      [
        "Ġr",
        "ather"
      ],
      [
        "Ġg",
        "ra"
      ],
      [
        "ĠA",
        "fter"
      ],
      [
        "ab",
        "les"
      ],
      [
        "Ġso",
        "on"
      ],
      [
        "m",
        "y"
      ],
      [
        "le",
        "x"
      ],
      [
        "ĠD",
        "ep"
      ],
      [
        "Ġprovid",
        "ed"
      ],
      [
        "Ġcharact",
        "er"
      ],
      [
        "a",
        "pt"
      ],
      [
        "Ġspe",
        "nd"
      ],
      [
        "Ġdet",
        "erm"
      ],
      [
        "Ġimpro",
        "ve"
      ],
      [
        "Ġte",
        "xt"
      ],
      [
        "Ġev",
        "ents"
      ],
      [
        "Ġris",
        "k"
      ],
      [
        "itt",
        "en"
      ],
      [
        "Ġrelations",
        "hip"
      ],
      [
        "Ġwh",
        "ite"
      ],
      [
        "Ġprovid",
        "es"
      ],
      [
        "Ġw",
        "ays"
      ],
      [
        "Ġdis",
        "play"
      ],
      [
        "ĠG",
        "o"
      ],
      [
        "Ġtra",
        "ining"
      ],
      [
        "Ġn",
        "atural"
      ],
      [
        "Ġplay",
        "ers"
      ],
      [
        "Ġiss",
        "ue"
      ],
      [
        "Ġg",
        "round"
      ],
      [
        "ang",
        "u"
      ],
      [
        "Ġo",
        "il"
      ],
      [
        "ĠIn",
        "c"
      ],
      [
        "ĠP",
        "ark"
      ],
      [
        "Ġprofess",
        "ional"
      ],
      [
        "Ġtra",
        "vel"
      ],
      [
        "u",
        "ge"
      ],
      [
        "ur",
        "ance"
      ],
      [
        "ĠP",
        "ar"
      ],
      [
        "ri",
        "e"
      ],
      [
        "Ġnot",
        "hing"
      ],
      [
        "Ġmet",
        "hod"
      ],
      [
        "Ġl",
        "iving"
      ],
      [
        "Ġse",
        "lect"
      ],
      [
        "i",
        "ol"
      ],
      [
        "Ġac",
        "cept"
      ],
      [
        "Ġsim",
        "ply"
      ],
      [
        "Ġb",
        "all"
      ],
      [
        "Ġis",
        "n"
      ],
      [
        "Ġknow",
        "ledge"
      ],
      [
        "Ġst",
        "at"
      ],
      [
        "ed",
        "s"
      ],
      [
        "Ġfor",
        "ward"
      ],
      [
        "ition",
        "al"
      ],
      [
        "Ġproper",
        "ty"
      ],
      [
        "I",
        "C"
      ],
      [
        "v",
        "al"
      ],
      [
        "Ġd",
        "am"
      ],
      [
        "Ġcan",
        "not"
      ],
      [
        "ĠJ",
        "an"
      ],
      [
        "Ġup",
        "on"
      ],
      [
        "Ġsim",
        "ilar"
      ],
      [
        "Ġproblem",
        "s"
      ],
      [
        "Ġe",
        "le"
      ],
      [
        "ĠS",
        "chool"
      ],
      [
        "Ġhe",
        "ld"
      ],
      [
        "Ġc",
        "ook"
      ],
      [
        "Ġass",
        "ist"
      ],
      [
        "Ġp",
        "ict"
      ],
      [
        "ĠP",
        "e"
      ],
      [
        "ru",
        "ction"
      ],
      [
        "Ġfin",
        "al"
      ],
      [
        "ĠA",
        "f"
      ],
      [
        "h",
        "ib"
      ],
      [
        "Ġs",
        "qu"
      ],
      [
        "Ġsa",
        "w"
      ],
      [
        "ĠE",
        "d"
      ],
      [
        "olog",
        "ical"
      ],
      [
        "Ġwee",
        "ks"
      ],
      [
        "ar",
        "get"
      ],
      [
        "Ġexper",
        "ien"
      ],
      [
        "Ġword",
        "s"
      ],
      [
        "Ġm",
        "atter"
      ],
      [
        "ĠH",
        "is"
      ],
      [
        "Ġeduc",
        "ation"
      ],
      [
        "Ġchang",
        "es"
      ],
      [
        "ĠI",
        "m"
      ],
      [
        "ĠW",
        "orld"
      ],
      [
        "Ġan",
        "sw"
      ],
      [
        "Ġp",
        "ark"
      ],
      [
        "Ġext",
        "ra"
      ],
      [
        "min",
        "ist"
      ],
      [
        "e",
        "es"
      ],
      [
        "m",
        "it"
      ],
      [
        "ag",
        "ing"
      ],
      [
        "u",
        "f"
      ],
      [
        "om",
        "es"
      ],
      [
        "ruct",
        "ure"
      ],
      [
        "Ġl",
        "og"
      ],
      [
        "Ġimp",
        "act"
      ],
      [
        "Ġmed",
        "ical"
      ],
      [
        "as",
        "k"
      ],
      [
        "ob",
        "ile"
      ],
      [
        "Ġseem",
        "s"
      ],
      [
        "Ġrec",
        "ogn"
      ],
      [
        "U",
        "S"
      ],
      [
        "ĠA",
        "b"
      ],
      [
        "ĠG",
        "l"
      ],
      [
        "Ġin",
        "n"
      ],
      [
        "Ġh",
        "y"
      ],
      [
        "et",
        "er"
      ],
      [
        "ĠC",
        "or"
      ],
      [
        "Ġun",
        "ique"
      ],
      [
        "Ġann",
        "oun"
      ],
      [
        "o",
        "le"
      ],
      [
        "s",
        "y"
      ],
      [
        "Ġt",
        "it"
      ],
      [
        "ĠT",
        "w"
      ],
      [
        "ach",
        "ing"
      ],
      [
        "Ġrec",
        "ent"
      ],
      [
        "Ġcons",
        "um"
      ],
      [
        "Ġp",
        "arent"
      ],
      [
        "Ġas",
        "soci"
      ],
      [
        "ag",
        "ue"
      ],
      [
        "pr",
        "il"
      ],
      [
        "-",
        "-"
      ],
      [
        "Ġc",
        "ard"
      ],
      [
        "Ġwrit",
        "ing"
      ],
      [
        "a",
        "ily"
      ],
      [
        "n",
        "ed"
      ],
      [
        "re",
        "g"
      ],
      [
        "ĠD",
        "es"
      ],
      [
        "ĠG",
        "e"
      ],
      [
        "Ġest",
        "ab"
      ],
      [
        "et",
        "h"
      ],
      [
        "pp",
        "er"
      ],
      [
        "ĠSt",
        "ates"
      ],
      [
        "em",
        "pt"
      ],
      [
        "um",
        "b"
      ],
      [
        "Ġc",
        "ell"
      ],
      [
        "ĠAmeric",
        "a"
      ],
      [
        "a",
        "ction"
      ],
      [
        "Ġde",
        "ath"
      ],
      [
        "Ġdes",
        "crib"
      ],
      [
        "Ġpop",
        "ular"
      ],
      [
        "Ġf",
        "it"
      ],
      [
        "Ġrun",
        "ning"
      ],
      [
        "Ġgener",
        "al"
      ],
      [
        "Ġbeaut",
        "iful"
      ],
      [
        "Ġo",
        "pp"
      ],
      [
        "ast",
        "ic"
      ],
      [
        "Ġrequ",
        "est"
      ],
      [
        "re",
        "me"
      ],
      [
        "Ġde",
        "b"
      ],
      [
        "ib",
        "r"
      ],
      [
        "Ġpart",
        "y"
      ],
      [
        "Ġrep",
        "resent"
      ],
      [
        "Ġmem",
        "ber"
      ],
      [
        "Ġa",
        "chie"
      ],
      [
        "Ġin",
        "j"
      ],
      [
        "itt",
        "ing"
      ],
      [
        "l",
        "t"
      ],
      [
        "Ġeng",
        "ine"
      ],
      [
        "re",
        "ct"
      ],
      [
        "Ġind",
        "e"
      ],
      [
        "Ġsk",
        "in"
      ],
      [
        "ĠO",
        "ct"
      ],
      [
        "Ġpr",
        "int"
      ],
      [
        "Ġnet",
        "work"
      ],
      [
        "Ġsignific",
        "ant"
      ],
      [
        "ĠS",
        "outh"
      ],
      [
        "ist",
        "ic"
      ],
      [
        "Ġincre",
        "ase"
      ],
      [
        "Ġf",
        "ig"
      ],
      [
        "Ġst",
        "aff"
      ],
      [
        "ĠK",
        "e"
      ],
      [
        "Ġfe",
        "ature"
      ],
      [
        "Ġro",
        "ad"
      ],
      [
        "Ġem",
        "b"
      ],
      [
        "med",
        "i"
      ],
      [
        "g",
        "le"
      ],
      [
        "Ġf",
        "ire"
      ],
      [
        "Ġn",
        "ice"
      ],
      [
        "Ġk",
        "ids"
      ],
      [
        "Ġtru",
        "e"
      ],
      [
        "f",
        "ace"
      ],
      [
        "ci",
        "ety"
      ],
      [
        "r",
        "is"
      ],
      [
        "Ġf",
        "ast"
      ],
      [
        "ĠP",
        "er"
      ],
      [
        "Ġinf",
        "l"
      ],
      [
        "ĠS",
        "m"
      ],
      [
        "Ġr",
        "ate"
      ],
      [
        "ĠJ",
        "une"
      ],
      [
        "Ġart",
        "icle"
      ],
      [
        "an",
        "ced"
      ],
      [
        "Ġd",
        "ate"
      ],
      [
        "Ġf",
        "oot"
      ],
      [
        "Ġens",
        "ure"
      ],
      [
        "Ġtot",
        "al"
      ],
      [
        "Ġsal",
        "es"
      ],
      [
        "Ġd",
        "om"
      ],
      [
        "Ġn",
        "ational"
      ],
      [
        "Ġgr",
        "ad"
      ],
      [
        "ĠCent",
        "er"
      ],
      [
        "Ġse",
        "nd"
      ],
      [
        "Ġus",
        "ually"
      ],
      [
        "Ġlong",
        "er"
      ],
      [
        "Ġl",
        "oss"
      ],
      [
        "ĠJ",
        "ust"
      ],
      [
        "Ġspe",
        "ak"
      ],
      [
        "Ġt",
        "akes"
      ],
      [
        "Ġterm",
        "s"
      ],
      [
        "Ġcon",
        "duct"
      ],
      [
        "Ġro",
        "le"
      ],
      [
        "Ġsoft",
        "ware"
      ],
      [
        "Ġ",
        "ill"
      ],
      [
        "iv",
        "al"
      ],
      [
        "Ġshow",
        "s"
      ],
      [
        "b",
        "ased"
      ],
      [
        "am",
        "ent"
      ],
      [
        "op",
        "h"
      ],
      [
        "Ġrec",
        "ently"
      ],
      [
        "Ġcol",
        "or"
      ],
      [
        "O",
        "S"
      ],
      [
        "Ġpre",
        "p"
      ],
      [
        "ĠQ",
        "u"
      ],
      [
        "ad",
        "a"
      ],
      [
        "Ġt",
        "able"
      ],
      [
        "Ġco",
        "ver"
      ],
      [
        "o",
        "es"
      ],
      [
        "A",
        "l"
      ],
      [
        "is",
        "c"
      ],
      [
        "Ġthrough",
        "out"
      ],
      [
        "Ġdef",
        "in"
      ],
      [
        "Ġoffic",
        "ial"
      ],
      [
        "Ġorig",
        "inal"
      ],
      [
        "Ġb",
        "al"
      ],
      [
        "A",
        "C"
      ],
      [
        "Ġb",
        "ase"
      ],
      [
        "Ġsec",
        "urity"
      ],
      [
        "ĠG",
        "r"
      ],
      [
        "iz",
        "ing"
      ],
      [
        "Ġbl",
        "ock"
      ],
      [
        "Ġopportun",
        "ity"
      ],
      [
        "Ġa",
        "ction"
      ],
      [
        "Ġus",
        "er"
      ],
      [
        "Ġcou",
        "ple"
      ],
      [
        "Ġhig",
        "her"
      ],
      [
        "Ġdesign",
        "ed"
      ],
      [
        "Ġs",
        "ense"
      ],
      [
        "Ġw",
        "ide"
      ],
      [
        "ou",
        "ra"
      ],
      [
        "Ġag",
        "ree"
      ],
      [
        "av",
        "ing"
      ],
      [
        "Ġtreat",
        "ment"
      ],
      [
        "Ġmom",
        "ent"
      ],
      [
        "R",
        "E"
      ],
      [
        "z",
        "e"
      ],
      [
        "Ġs",
        "le"
      ],
      [
        "ĠS",
        "ome"
      ],
      [
        "ĠCount",
        "y"
      ],
      [
        "n",
        "es"
      ],
      [
        "Ġconc",
        "ern"
      ],
      [
        "Ġw",
        "all"
      ],
      [
        "o",
        "e"
      ],
      [
        "Ġyour",
        "self"
      ],
      [
        "Ġn",
        "orm"
      ],
      [
        "Ġcre",
        "ated"
      ],
      [
        "Ġprogram",
        "s"
      ],
      [
        "ĠPres",
        "ident"
      ],
      [
        "ĠB",
        "y"
      ],
      [
        "Ġph",
        "one"
      ],
      [
        "Ġh",
        "it"
      ],
      [
        "ĠJ",
        "u"
      ],
      [
        "Ġf",
        "a"
      ],
      [
        "ĠSe",
        "pt"
      ],
      [
        "Ġlead",
        "ers"
      ],
      [
        "Ġp",
        "ric"
      ],
      [
        "ed",
        "eral"
      ],
      [
        "Ġst",
        "ri"
      ],
      [
        "Ġst",
        "ock"
      ],
      [
        "Ġconne",
        "ct"
      ],
      [
        "Ġopt",
        "ions"
      ],
      [
        "Ġ",
        "..."
      ],
      [
        "Ġs",
        "ong"
      ],
      [
        "ĠRe",
        "g"
      ],
      [
        "Ġreg",
        "ard"
      ],
      [
        "Ġv",
        "ict"
      ],
      [
        "Ġrece",
        "ive"
      ],
      [
        "Ġout",
        "side"
      ],
      [
        "att",
        "le"
      ],
      [
        "Ġet",
        "c"
      ],
      [
        "Ġread",
        "y"
      ],
      [
        "ĠS",
        "pe"
      ],
      [
        "Ġright",
        "s"
      ],
      [
        "Ġbo",
        "x"
      ],
      [
        "Ġle",
        "ave"
      ],
      [
        "ud",
        "e"
      ],
      [
        "Ġl",
        "at"
      ],
      [
        "ĠP",
        "ol"
      ],
      [
        "Ġins",
        "ide"
      ],
      [
        "or",
        "ing"
      ],
      [
        "Ġcont",
        "rib"
      ],
      [
        "ĠE",
        "m"
      ],
      [
        "Ġcurrent",
        "ly"
      ],
      [
        "ir",
        "it"
      ],
      [
        "ĠH",
        "ar"
      ],
      [
        "op",
        "s"
      ],
      [
        "Ġwor",
        "th"
      ],
      [
        "Ġsystem",
        "s"
      ],
      [
        "ĠP",
        "re"
      ],
      [
        "r",
        "ight"
      ],
      [
        "ĠA",
        "ct"
      ],
      [
        "b",
        "it"
      ],
      [
        "ĠM",
        "ark"
      ],
      [
        "Ġdetail",
        "s"
      ],
      [
        "Ġf",
        "irm"
      ],
      [
        "ĠN",
        "ow"
      ],
      [
        "ĠU",
        "s"
      ],
      [
        "ĠWe",
        "b"
      ],
      [
        "Ġfun",
        "ction"
      ],
      [
        "Ġapplic",
        "ation"
      ],
      [
        "Ġvers",
        "ion"
      ],
      [
        "O",
        "U"
      ],
      [
        "Ġus",
        "ers"
      ],
      [
        "Ġr",
        "ound"
      ],
      [
        "Ġsa",
        "fe"
      ],
      [
        "Ġ",
        "ut"
      ],
      [
        "am",
        "ed"
      ],
      [
        "n",
        "a"
      ],
      [
        "Ġreg",
        "ular"
      ],
      [
        "ffe",
        "cts"
      ],
      [
        "Ġwom",
        "an"
      ],
      [
        "ĠM",
        "r"
      ],
      [
        "Ġpa",
        "per"
      ],
      [
        "Ġcom",
        "fort"
      ],
      [
        "Ġhapp",
        "y"
      ],
      [
        "Ã",
        "©"
      ],
      [
        "Ġrece",
        "ived"
      ],
      [
        "Ġread",
        "ing"
      ],
      [
        "Ġf",
        "ight"
      ],
      [
        "ic",
        "les"
      ],
      [
        "Ġst",
        "ra"
      ],
      [
        "Ġco",
        "ll"
      ],
      [
        "ĠH",
        "igh"
      ],
      [
        "Ġbook",
        "s"
      ],
      [
        "uf",
        "act"
      ],
      [
        "et",
        "t"
      ],
      [
        "ad",
        "em"
      ],
      [
        "if",
        "f"
      ],
      [
        "Ġpriv",
        "ate"
      ],
      [
        "Ġthem",
        "selves"
      ],
      [
        "W",
        "ith"
      ],
      [
        "Ġd",
        "rug"
      ],
      [
        "Ġex",
        "am"
      ],
      [
        "ĠH",
        "ouse"
      ],
      [
        "Ġde",
        "ep"
      ],
      [
        "idd",
        "le"
      ],
      [
        "Ġitem",
        "s"
      ],
      [
        "Ġl",
        "ost"
      ],
      [
        "Ġleg",
        "al"
      ],
      [
        "ĠT",
        "ra"
      ],
      [
        "ain",
        "ing"
      ],
      [
        "Ġc",
        "ause"
      ],
      [
        "ĠA",
        "g"
      ],
      [
        "Ġres",
        "pect"
      ],
      [
        "Ġpract",
        "ice"
      ],
      [
        "Ġcl",
        "ick"
      ],
      [
        "Ġaddition",
        "al"
      ],
      [
        "Ġmor",
        "ning"
      ],
      [
        "Ġo",
        "bs"
      ],
      [
        "Ġb",
        "ed"
      ],
      [
        "Ġp",
        "le"
      ],
      [
        "Ġl",
        "ate"
      ],
      [
        "ĠM",
        "arch"
      ],
      [
        "Ġde",
        "pend"
      ],
      [
        "Ġintern",
        "ational"
      ],
      [
        "Ġde",
        "fe"
      ],
      [
        "Ġch",
        "oose"
      ],
      [
        "ĠA",
        "ug"
      ],
      [
        "Ġp",
        "an"
      ],
      [
        "ĠA",
        "pril"
      ],
      [
        "Ġany",
        "one"
      ],
      [
        "Ġfin",
        "ancial"
      ],
      [
        "Ġd",
        "est"
      ],
      [
        "az",
        "ing"
      ],
      [
        "u",
        "ary"
      ],
      [
        "ou",
        "d"
      ],
      [
        "a",
        "ign"
      ],
      [
        "Ġs",
        "at"
      ],
      [
        "h",
        "aps"
      ],
      [
        "at",
        "ory"
      ],
      [
        "ul",
        "ated"
      ],
      [
        "Ġhand",
        "s"
      ],
      [
        "Ġcare",
        "er"
      ],
      [
        "Ġt",
        "arget"
      ],
      [
        "art",
        "ment"
      ],
      [
        "Ġb",
        "ott"
      ],
      [
        "atur",
        "day"
      ],
      [
        "y",
        "l"
      ],
      [
        "Ġm",
        "ix"
      ],
      [
        "ĠM",
        "ore"
      ],
      [
        "ar",
        "ter"
      ],
      [
        "Ġpol",
        "icy"
      ],
      [
        "ol",
        "ution"
      ],
      [
        "ĠW",
        "est"
      ],
      [
        "ww",
        "w"
      ],
      [
        "Ġp",
        "ers"
      ],
      [
        "Ġex",
        "act"
      ],
      [
        "Th",
        "at"
      ],
      [
        "ĠD",
        "on"
      ],
      [
        "Ġwas",
        "n"
      ],
      [
        "ish",
        "ing"
      ],
      [
        "Ġcour",
        "t"
      ],
      [
        "Ġpri",
        "or"
      ],
      [
        "P",
        "h"
      ],
      [
        "Ġo",
        "p"
      ],
      [
        "Ġcol",
        "lect"
      ],
      [
        "i",
        "et"
      ],
      [
        "o",
        "ber"
      ],
      [
        "v",
        "ille"
      ],
      [
        "Ġl",
        "it"
      ],
      [
        "ĠCom",
        "p"
      ],
      [
        "Ġfor",
        "mer"
      ],
      [
        "Ġpot",
        "ential"
      ],
      [
        "ur",
        "g"
      ],
      [
        "Ġab",
        "ility"
      ],
      [
        "ear",
        "ch"
      ],
      [
        "Ġgrow",
        "th"
      ],
      [
        "Ġchall",
        "eng"
      ],
      [
        "Ġs",
        "il"
      ],
      [
        "ad",
        "es"
      ],
      [
        "f",
        "l"
      ],
      [
        "ĠW",
        "ar"
      ],
      [
        "Ġat",
        "tend"
      ],
      [
        "Ġsa",
        "f"
      ],
      [
        "Ġde",
        "g"
      ],
      [
        "Ġsc",
        "reen"
      ],
      [
        "Ġre",
        "lease"
      ],
      [
        "Ġte",
        "ac"
      ],
      [
        "A",
        "M"
      ],
      [
        "M",
        "y"
      ],
      [
        "ĠD",
        "r"
      ],
      [
        "Ġco",
        "ol"
      ],
      [
        "Ġplay",
        "er"
      ],
      [
        "Ġve",
        "h"
      ],
      [
        "is",
        "es"
      ],
      [
        "ĠS",
        "er"
      ],
      [
        "if",
        "orn"
      ],
      [
        "Ġle",
        "ar"
      ],
      [
        "Ġey",
        "es"
      ],
      [
        "Ġl",
        "ives"
      ],
      [
        "'",
        "d"
      ],
      [
        "A",
        "ll"
      ],
      [
        "Ġfavor",
        "ite"
      ],
      [
        "ke",
        "nd"
      ],
      [
        "Ġv",
        "ia"
      ],
      [
        "Ġquick",
        "ly"
      ],
      [
        "O",
        "ur"
      ],
      [
        "Ġm",
        "atch"
      ],
      [
        "S",
        "h"
      ],
      [
        "Ġcl",
        "os"
      ],
      [
        "er",
        "c"
      ],
      [
        "Ġs",
        "us"
      ],
      [
        "Ġdec",
        "ision"
      ],
      [
        "Ġnecess",
        "ary"
      ],
      [
        "l",
        "ike"
      ],
      [
        "ĠAs",
        "soci"
      ],
      [
        "av",
        "es"
      ],
      [
        "Ġdri",
        "ve"
      ],
      [
        "Ġgo",
        "al"
      ],
      [
        "p",
        "ri"
      ],
      [
        "Ġbe",
        "gan"
      ],
      [
        "ĠAust",
        "ral"
      ],
      [
        "im",
        "um"
      ],
      [
        "ĠD",
        "av"
      ],
      [
        "ac",
        "hed"
      ],
      [
        "Ġc",
        "ases"
      ],
      [
        "id",
        "ge"
      ],
      [
        "g",
        "round"
      ],
      [
        "Ġinvol",
        "ved"
      ],
      [
        "O",
        "T"
      ],
      [
        "Ġe",
        "mer"
      ],
      [
        "Ġv",
        "iol"
      ],
      [
        "..",
        ".."
      ],
      [
        "ough",
        "t"
      ],
      [
        "Ġpr",
        "im"
      ],
      [
        "li",
        "er"
      ],
      [
        "Ġl",
        "angu"
      ],
      [
        "e",
        "k"
      ],
      [
        "o",
        "ke"
      ],
      [
        "al",
        "es"
      ],
      [
        "Ġit",
        "self"
      ],
      [
        "ĠP",
        "at"
      ],
      [
        "s",
        "c"
      ],
      [
        "Ġ",
        "x"
      ],
      [
        "Ġd",
        "ro"
      ],
      [
        "Ġpro",
        "jects"
      ],
      [
        "Ġreport",
        "ed"
      ],
      [
        "ĠSt",
        "ud"
      ],
      [
        "an",
        "a"
      ],
      [
        "Ġind",
        "ic"
      ],
      [
        "Ġmeet",
        "ing"
      ],
      [
        "Ġc",
        "oun"
      ],
      [
        "ed",
        "d"
      ],
      [
        "Ġm",
        "ach"
      ],
      [
        "ĠL",
        "a"
      ],
      [
        "Ġlevel",
        "s"
      ],
      [
        "Ġf",
        "air"
      ],
      [
        "ĠO",
        "ff"
      ],
      [
        "Ġapp",
        "e"
      ],
      [
        "Ġplay",
        "ing"
      ],
      [
        "Ġexp",
        "ress"
      ],
      [
        "ci",
        "p"
      ],
      [
        "Ġres",
        "ources"
      ],
      [
        "Ġar",
        "ri"
      ],
      [
        "Ġint",
        "rodu"
      ],
      [
        "i",
        "pping"
      ],
      [
        "Ġne",
        "g"
      ],
[...]
